{
  "version": "1.0",
  "truncation": null,
  "padding": null,
  "added_tokens": [
    {
      "id": 0,
      "content": "<PAD>",
      "single_word": false,
      "lstrip": false,
      "rstrip": false,
      "normalized": false,
      "special": true
    },
    {
      "id": 1,
      "content": "<BOS>",
      "single_word": false,
      "lstrip": false,
      "rstrip": false,
      "normalized": false,
      "special": true
    },
    {
      "id": 2,
      "content": "<EOS>",
      "single_word": false,
      "lstrip": false,
      "rstrip": false,
      "normalized": false,
      "special": true
    },
    {
      "id": 3,
      "content": "<UNK>",
      "single_word": false,
      "lstrip": false,
      "rstrip": false,
      "normalized": false,
      "special": true
    }
  ],
  "normalizer": null,
  "pre_tokenizer": {
    "type": "ByteLevel",
    "add_prefix_space": true,
    "trim_offsets": true,
    "use_regex": true
  },
  "post_processor": null,
  "decoder": null,
  "model": {
    "type": "BPE",
    "dropout": null,
    "unk_token": "<UNK>",
    "continuing_subword_prefix": null,
    "end_of_word_suffix": null,
    "fuse_unk": false,
    "byte_fallback": false,
    "ignore_merges": false,
    "vocab": {
      "<PAD>": 0,
      "<BOS>": 1,
      "<EOS>": 2,
      "<UNK>": 3,
      "!": 4,
      "\"": 5,
      "#": 6,
      "$": 7,
      "%": 8,
      "&": 9,
      "'": 10,
      "(": 11,
      ")": 12,
      "*": 13,
      "+": 14,
      ",": 15,
      "-": 16,
      ".": 17,
      "/": 18,
      "0": 19,
      "1": 20,
      "2": 21,
      "3": 22,
      "4": 23,
      "5": 24,
      "6": 25,
      "7": 26,
      "8": 27,
      "9": 28,
      ":": 29,
      ";": 30,
      "<": 31,
      "=": 32,
      ">": 33,
      "?": 34,
      "@": 35,
      "A": 36,
      "B": 37,
      "C": 38,
      "D": 39,
      "E": 40,
      "F": 41,
      "G": 42,
      "H": 43,
      "I": 44,
      "J": 45,
      "K": 46,
      "L": 47,
      "M": 48,
      "N": 49,
      "O": 50,
      "P": 51,
      "Q": 52,
      "R": 53,
      "S": 54,
      "T": 55,
      "U": 56,
      "V": 57,
      "W": 58,
      "X": 59,
      "Y": 60,
      "Z": 61,
      "[": 62,
      "\\": 63,
      "]": 64,
      "^": 65,
      "_": 66,
      "`": 67,
      "a": 68,
      "b": 69,
      "c": 70,
      "d": 71,
      "e": 72,
      "f": 73,
      "g": 74,
      "h": 75,
      "i": 76,
      "j": 77,
      "k": 78,
      "l": 79,
      "m": 80,
      "n": 81,
      "o": 82,
      "p": 83,
      "q": 84,
      "r": 85,
      "s": 86,
      "t": 87,
      "u": 88,
      "v": 89,
      "w": 90,
      "x": 91,
      "y": 92,
      "z": 93,
      "{": 94,
      "|": 95,
      "}": 96,
      "~": 97,
      "¡": 98,
      "¢": 99,
      "£": 100,
      "¤": 101,
      "¥": 102,
      "¦": 103,
      "§": 104,
      "¨": 105,
      "©": 106,
      "ª": 107,
      "«": 108,
      "¬": 109,
      "®": 110,
      "¯": 111,
      "°": 112,
      "±": 113,
      "²": 114,
      "³": 115,
      "´": 116,
      "µ": 117,
      "¶": 118,
      "·": 119,
      "¸": 120,
      "¹": 121,
      "º": 122,
      "»": 123,
      "¼": 124,
      "½": 125,
      "¾": 126,
      "¿": 127,
      "Â": 128,
      "Ã": 129,
      "Ä": 130,
      "Å": 131,
      "Ï": 132,
      "Ð": 133,
      "Ñ": 134,
      "â": 135,
      "ã": 136,
      "ä": 137,
      "å": 138,
      "æ": 139,
      "ç": 140,
      "è": 141,
      "é": 142,
      "ê": 143,
      "ë": 144,
      "ì": 145,
      "í": 146,
      "ï": 147,
      "ð": 148,
      "ĉ": 149,
      "Ċ": 150,
      "č": 151,
      "Ġ": 152,
      "Ģ": 153,
      "ģ": 154,
      "Ĥ": 155,
      "ĥ": 156,
      "Ħ": 157,
      "ħ": 158,
      "Ĩ": 159,
      "ĩ": 160,
      "Ī": 161,
      "ī": 162,
      "Ĭ": 163,
      "ĭ": 164,
      "Į": 165,
      "į": 166,
      "İ": 167,
      "ı": 168,
      "Ĳ": 169,
      "ĳ": 170,
      "Ĵ": 171,
      "ĵ": 172,
      "Ķ": 173,
      "ķ": 174,
      "ĸ": 175,
      "Ĺ": 176,
      "ĺ": 177,
      "Ļ": 178,
      "ļ": 179,
      "Ľ": 180,
      "ľ": 181,
      "Ŀ": 182,
      "ŀ": 183,
      "Ł": 184,
      "ł": 185,
      "Ń": 186,
      "ĠĠ": 187,
      "čĊ": 188,
      "Ġt": 189,
      "in": 190,
      "Ġa": 191,
      "re": 192,
      "ĠĠĠĠ": 193,
      "on": 194,
      "he": 195,
      "de": 196,
      "Ġs": 197,
      "at": 198,
      "or": 199,
      "Ġ<": 200,
      "er": 201,
      "ĠčĊ": 202,
      "st": 203,
      "co": 204,
      "Ġi": 205,
      "le": 206,
      "ĠĠĠ": 207,
      "Ġthe": 208,
      "</": 209,
      "Ġf": 210,
      "Ġp": 211,
      "Ġw": 212,
      "en": 213,
      "ing": 214,
      "th": 215,
      "Ġin": 216,
      "Ġc": 217,
      "an": 218,
      "Ġ=": 219,
      "li": 220,
      "Ġto": 221,
      "ou": 222,
      "code": 223,
      "se": 224,
      "Ġm": 225,
      "ar": 226,
      "Ġb": 227,
      "Ġo": 228,
      "Ġre": 229,
      "Ġd": 230,
      "ct": 231,
      "ion": 232,
      "al": 233,
      "ro": 234,
      "Ġan": 235,
      "Ġn": 236,
      "me": 237,
      "ĠI": 238,
      "ĠĠĠĠĠĠĠ": 239,
      "es": 240,
      "Ġth": 241,
      "it": 242,
      "ut": 243,
      "yth": 244,
      "mp": 245,
      "lo": 246,
      "ython": 247,
      "Ġe": 248,
      "ge": 249,
      "Ġh": 250,
      "Ġof": 251,
      "as": 252,
      "Ġu": 253,
      "pre": 254,
      "ĠP": 255,
      "Ġis": 256,
      "Ġand": 257,
      "ed": 258,
      "Ġfor": 259,
      "ent": 260,
      "ur": 261,
      "ve": 262,
      "um": 263,
      "is": 264,
      "Ġde": 265,
      "ce": 266,
      "ate": 267,
      "ra": 268,
      "):": 269,
      "Ġ\"": 270,
      "ch": 271,
      "Ġ'": 272,
      "Ġ#": 273,
      "Ġit": 274,
      "Ġy": 275,
      "Ġst": 276,
      "Ġse": 277,
      "ĠPython": 278,
      "un": 279,
      "ot": 280,
      ".</": 281,
      "ĠĠĠĠĠĠĠĠ": 282,
      "Ġli": 283,
      "ul": 284,
      "ht": 285,
      "ort": 286,
      "ly": 287,
      "int": 288,
      "Ġbe": 289,
      "ri": 290,
      "Ġ(": 291,
      "ow": 292,
      "Ġ</": 293,
      "ver": 294,
      "Ġthat": 295,
      "Ġwi": 296,
      "ile": 297,
      "ame": 298,
      "Ġyou": 299,
      "Ġg": 300,
      "ck": 301,
      "gt": 302,
      "Ġco": 303,
      "><": 304,
      "qu": 305,
      "lf": 306,
      "ld": 307,
      "Ġif": 308,
      "urn": 309,
      "Ġ1": 310,
      "></": 311,
      "pp": 312,
      "ke": 313,
      "Ġpro": 314,
      "turn": 315,
      "ad": 316,
      "Ġdef": 317,
      "--": 318,
      "Ġon": 319,
      "Ġdo": 320,
      "ll": 321,
      "=\"": 322,
      "tp": 323,
      "()": 324,
      "Ġreturn": 325,
      "rint": 326,
      "ol": 327,
      "od": 328,
      "Ġl": 329,
      "ction": 330,
      "em": 331,
      "ay": 332,
      "ab": 333,
      "est": 334,
      "ation": 335,
      "ring": 336,
      "Ġex": 337,
      "ĠC": 338,
      "Ġwith": 339,
      "Ġ[": 340,
      "ic": 341,
      "Ġprint": 342,
      "ter": 343,
      "ass": 344,
      "ex": 345,
      "ĠT": 346,
      "Ġr": 347,
      "pt": 348,
      "mport": 349,
      "rom": 350,
      "__": 351,
      "//": 352,
      "and": 353,
      "Ġso": 354,
      "ĠĠĠĠĠĠĠĠĠĠĠ": 355,
      "',": 356,
      "put": 357,
      "Ġthis": 358,
      "Ġas": 359,
      "get": 360,
      "://": 361,
      "http": 362,
      "low": 363,
      "ect": 364,
      "ig": 365,
      "Ġwh": 366,
      "Ġv": 367,
      "Ġcon": 368,
      "ata": 369,
      "Ġ2": 370,
      "Ġha": 371,
      "ment": 372,
      "Ġfrom": 373,
      "if": 374,
      "Ġimport": 375,
      "mple": 376,
      "nt": 377,
      "ref": 378,
      "Ġlist": 379,
      ":</": 380,
      "Ġcan": 381,
      "00": 382,
      "Ġus": 383,
      "ers": 384,
      "age": 385,
      "il": 386,
      "ord": 387,
      "pe": 388,
      "Ġnum": 389,
      "Ġuse": 390,
      "ue": 391,
      "ult": 392,
      "Ġlo": 393,
      "lass": 394,
      "ind": 395,
      "ime": 396,
      "out": 397,
      "Ġmo": 398,
      "ine": 399,
      ";&": 400,
      "Ġself": 401,
      "Ġne": 402,
      "Ġnot": 403,
      "Ġfile": 404,
      "Ġhave": 405,
      "ces": 406,
      "ĠS": 407,
      "Ġma": 408,
      "Ġor": 409,
      "ĠIn": 410,
      "Ġhref": 411,
      "Ġ0": 412,
      "end": 413,
      "ĠA": 414,
      "ext": 415,
      "ss": 416,
      "ould": 417,
      "di": 418,
      "Ġ+": 419,
      "str": 420,
      "name": 421,
      "\",": 422,
      "ĠW": 423,
      "Ġar": 424,
      "et": 425,
      "Ġle": 426,
      "her": 427,
      "'s": 428,
      "\">": 429,
      "ite": 430,
      "Ġsu": 431,
      "to": 432,
      "ma": 433,
      "able": 434,
      "unction": 435,
      "Ġdi": 436,
      "self": 437,
      "Ġstring": 438,
      "gra": 439,
      "ase": 440,
      "Ġbut": 441,
      "ject": 442,
      "com": 443,
      "ant": 444,
      "ang": 445,
      "Ġsome": 446,
      "Ġ-": 447,
      "..": 448,
      "py": 449,
      "ĠD": 450,
      "##": 451,
      "?</": 452,
      "ong": 453,
      "Ġme": 454,
      "))": 455,
      "gram": 456,
      "ĠF": 457,
      "Ġpython": 458,
      "('": 459,
      "Ġal": 460,
      "ary": 461,
      "'t": 462,
      "all": 463,
      "ack": 464,
      "oo": 465,
      "Ġfunction": 466,
      "ange": 467,
      "Ġcode": 468,
      "----": 469,
      "no": 470,
      "Ġare": 471,
      "ĠInput": 472,
      "Ġch": 473,
      "ollow": 474,
      "id": 475,
      "ir": 476,
      "Ġdata": 477,
      "one": 478,
      "Ġres": 479,
      "Ġ3": 480,
      "iv": 481,
      "(\"": 482,
      "list": 483,
      "Ġapp": 484,
      "der": 485,
      "Ġlike": 486,
      "reate": 487,
      "art": 488,
      "ĠH": 489,
      "Ġj": 490,
      "')": 491,
      "Ġnumb": 492,
      "Ġclass": 493,
      "for": 494,
      "Ġusing": 495,
      "':": 496,
      "Ġget": 497,
      "Ġ&": 498,
      "ork": 499,
      "Ġmy": 500,
      "ml": 501,
      "res": 502,
      "Ġprogram": 503,
      "om": 504,
      "Ġ==": 505,
      "ww": 506,
      "ie": 507,
      "Ġx": 508,
      "ĠN": 509,
      "im": 510,
      "Ġway": 511,
      "ally": 512,
      "te": 513,
      "del": 514,
      "us": 515,
      "ty": 516,
      "ble": 517,
      "ener": 518,
      "Ġwe": 519,
      "op": 520,
      "cri": 521,
      "ust": 522,
      "ip": 523,
      "iz": 524,
      "Ġ{": 525,
      "python": 526,
      "Ġthere": 527,
      "bject": 528,
      "ĠM": 529,
      "ive": 530,
      "org": 531,
      "con": 532,
      "ule": 533,
      "Ġat": 534,
      "Ġsh": 535,
      "cript": 536,
      "cess": 537,
      "ample": 538,
      "so": 539,
      "lt": 540,
      "nd": 541,
      "lic": 542,
      "strong": 543,
      "ĠG": 544,
      "act": 545,
      "Ġrel": 546,
      "rite": 547,
      "la": 548,
      "ath": 549,
      "quest": 550,
      "num": 551,
      "Ġwould": 552,
      "Ġpo": 553,
      "'m": 554,
      "ist": 555,
      "\")": 556,
      "ich": 557,
      "thod": 558,
      "ry": 559,
      "odule": 560,
      "Ġwant": 561,
      "here": 562,
      "per": 563,
      "Ġall": 564,
      "Ġval": 565,
      "rent": 566,
      "br": 567,
      "key": 568,
      "ag": 569,
      "Ġad": 570,
      "word": 571,
      "mo": 572,
      "el": 573,
      "Ġun": 574,
      "ac": 575,
      "']": 576,
      "ions": 577,
      "Ġwork": 578,
      "ĠĠĠĠĠĠĠĠĠĠĠĠĠĠĠĠ": 579,
      "Ġany": 580,
      "Ġresult": 581,
      "hen": 582,
      "Ġtime": 583,
      "Ġ5": 584,
      "follow": 585,
      "nofollow": 586,
      "Ġname": 587,
      "app": 588,
      "Ġrange": 589,
      "file": 590,
      "ser": 591,
      "ĠO": 592,
      "string": 593,
      "form": 594,
      "up": 595,
      "Ġk": 596,
      "do": 597,
      "ĠE": 598,
      "ĠB": 599,
      "Ġ4": 600,
      "Ġwill": 601,
      "iven": 602,
      "ĠL": 603,
      "Ġby": 604,
      "our": 605,
      "Ġcom": 606,
      "html": 607,
      "hat": 608,
      "ĠCreate": 609,
      "pro": 610,
      "ther": 611,
      "vi": 612,
      "fe": 613,
      "Ġwhich": 614,
      "Ġyour": 615,
      "time": 616,
      "his": 617,
      "am": 618,
      "read": 619,
      "ror": 620,
      "ast": 621,
      "Ġinst": 622,
      "ari": 623,
      "val": 624,
      "ĠR": 625,
      "),": 626,
      "ray": 627,
      "Ġlen": 628,
      "Ġneed": 629,
      "ub": 630,
      "ok": 631,
      "Ġone": 632,
      "sp": 633,
      "Ġset": 634,
      "Ġ%": 635,
      "jang": 636,
      "Ġ*": 637,
      "red": 638,
      "ound": 639,
      "Ġnumber": 640,
      "Ġword": 641,
      "Ġgiven": 642,
      "Ġmethod": 643,
      "cs": 644,
      "Ġcont": 645,
      "lement": 646,
      "Ġtest": 647,
      "ĠHow": 648,
      "The": 649,
      "thing": 650,
      "ize": 651,
      "Ġel": 652,
      "],": 653,
      "Ġmodel": 654,
      "ain": 655,
      "ĠĠĠĠĠĠĠĠĠĠĠĠĠĠĠ": 656,
      "ĠThe": 657,
      "ance": 658,
      "Ġrun": 659,
      "ali": 660,
      "ĠU": 661,
      "data": 662,
      "ard": 663,
      "ach": 664,
      "ci": 665,
      "Ġmodule": 666,
      "Ġelse": 667,
      "####": 668,
      "ink": 669,
      "jango": 670,
      "ure": 671,
      "Ġdoes": 672,
      "Ġver": 673,
      "Ġgener": 674,
      "Ġcomp": 675,
      "Ġobject": 676,
      "Ġwhat": 677,
      "unt": 678,
      "Ġen": 679,
      "Ġout": 680,
      "Ġab": 681,
      "ff": 682,
      "set": 683,
      "Ġgo": 684,
      "Ġscript": 685,
      "['": 686,
      "Ġsy": 687,
      "\"\"": 688,
      "Ġtw": 689,
      "heck": 690,
      "ield": 691,
      "ĠĠčĊ": 692,
      "Ġfind": 693,
      "rue": 694,
      "Ġhas": 695,
      "Ġup": 696,
      "ems": 697,
      "Ġnew": 698,
      "ument": 699,
      "rect": 700,
      "sion": 701,
      "])": 702,
      "len": 703,
      "Ġinto": 704,
      "Ġhe": 705,
      "Ġ__": 706,
      "row": 707,
      "ak": 708,
      "lit": 709,
      "Ġcur": 710,
      "Ġqu": 711,
      "Ġpar": 712,
      "wi": 713,
      "Ġjust": 714,
      "ec": 715,
      "cept": 716,
      "test": 717,
      "ory": 718,
      "--------": 719,
      "oug": 720,
      "Ġhow": 721,
      "Ġshould": 722,
      "Ġother": 723,
      "Ġadd": 724,
      "uct": 725,
      "Ġapplic": 726,
      "tra": 727,
      "Ġlook": 728,
      "www": 729,
      "Ġline": 730,
      "ues": 731,
      "ated": 732,
      "ore": 733,
      "andom": 734,
      "Ġexample": 735,
      "Ġtext": 736,
      "Ġno": 737,
      "ca": 738,
      "gs": 739,
      "brary": 740,
      "Ġmore": 741,
      "lib": 742,
      "ild": 743,
      "pen": 744,
      "ence": 745,
      "Ġsi": 746,
      "lock": 747,
      "indow": 748,
      "cur": 749,
      "ator": 750,
      "oup": 751,
      "Ġcomm": 752,
      "Ġsomething": 753,
      "Ġpre": 754,
      "we": 755,
      "Ġtwo": 756,
      "...": 757,
      ").": 758,
      "Ġac": 759,
      "po": 760,
      "Ġtry": 761,
      "ren": 762,
      "Ġchar": 763,
      "\":": 764,
      "ne": 765,
      "ail": 766,
      "Ġvalue": 767,
      "==": 768,
      "Ġbet": 769,
      "irst": 770,
      "ute": 771,
      "path": 772,
      "Ġ/": 773,
      "Ġkey": 774,
      "ote": 775,
      "Ġcall": 776,
      "Ġnumbers": 777,
      "date": 778,
      "ses": 779,
      "ĠX": 780,
      "ight": 781,
      "append": 782,
      "Ġmax": 783,
      "par": 784,
      "init": 785,
      "ree": 786,
      "ough": 787,
      "Ġwhen": 788,
      "tr": 789,
      "Ġ10": 790,
      "In": 791,
      "ign": 792,
      "Ġser": 793,
      "ori": 794,
      "gth": 795,
      "Ġinput": 796,
      "dict": 797,
      "Ġsub": 798,
      "ype": 799,
      "dex": 800,
      "text": 801,
      "Ġper": 802,
      "Ġam": 803,
      "Ġweb": 804,
      "Ġuser": 805,
      "now": 806,
      "ded": 807,
      "outp": 808,
      "min": 809,
      "are": 810,
      "output": 811,
      "mat": 812,
      "Ġthen": 813,
      "Ġ+=": 814,
      "av": 815,
      "10": 816,
      "ations": 817,
      "You": 818,
      "ap": 819,
      "lay": 820,
      "Ġstr": 821,
      "Ġdif": 822,
      "Python": 823,
      "arch": 824,
      "Ġonly": 825,
      "Ġcheck": 826,
      "cl": 827,
      "si": 828,
      "Ġsort": 829,
      "use": 830,
      ">,": 831,
      "Ġ8": 832,
      "Ġ6": 833,
      "Ġfollow": 834,
      "ity": 835,
      "Ġwas": 836,
      "sh": 837,
      "'ve": 838,
      "ep": 839,
      "Ġfiles": 840,
      "Ġos": 841,
      "rit": 842,
      "ting": 843,
      "ght": 844,
      "Ġarray": 845,
      "Ġpass": 846,
      "Ġmat": 847,
      ")</": 848,
      "ates": 849,
      "Ġte": 850,
      "Ġthan": 851,
      "dit": 852,
      "ning": 853,
      "Ġsp": 854,
      "angu": 855,
      "ĠĠĠĠĠ": 856,
      "This": 857,
      "class": 858,
      "Ġsol": 859,
      "Ġelement": 860,
      "ks": 861,
      "ess": 862,
      "Ġdon": 863,
      "ĠJ": 864,
      "tri": 865,
      "ven": 866,
      "Ġspe": 867,
      "my": 868,
      "Ġcal": 869,
      "Ġstart": 870,
      "Ġalso": 871,
      "Ġrandom": 872,
      "line": 873,
      "Ġbu": 874,
      "Ġread": 875,
      "Ġeach": 876,
      "ft": 877,
      "Ġarr": 878,
      "Ġinter": 879,
      "Ġmake": 880,
      "ages": 881,
      "gest": 882,
      "ĠWrite": 883,
      "():": 884,
      "arr": 885,
      "ution": 886,
      "Ġvari": 887,
      "ML": 888,
      "Ġknow": 889,
      "Ġsum": 890,
      "ating": 891,
      "sed": 892,
      "Ġ\"\"\"": 893,
      "ĠNone": 894,
      "alse": 895,
      "uld": 896,
      "__(": 897,
      "ource": 898,
      "def": 899,
      "error": 900,
      "Ġfirst": 901,
      "Ġ[]": 902,
      "Ġover": 903,
      "Ġoutput": 904,
      "Ġcreate": 905,
      "Ġcould": 906,
      "Ġ:": 907,
      "cal": 908,
      "Ġdiffe": 909,
      "Ġabout": 910,
      "ix": 911,
      "Ġsame": 912,
      "ify": 913,
      "led": 914,
      "indows": 915,
      "ber": 916,
      "Ġ}": 917,
      "mplement": 918,
      "Ġwhile": 919,
      "blem": 920,
      "pon": 921,
      "Ġrequest": 922,
      "ans": 923,
      "ten": 924,
      "Ġinte": 925,
      "import": 926,
      "Ġlangu": 927,
      "ies": 928,
      "add": 929,
      "Ġlog": 930,
      "Ġopt": 931,
      "ace": 932,
      "dent": 933,
      "pla": 934,
      "Ġcol": 935,
      "docs": 936,
      "Ġfollowing": 937,
      "ĠIt": 938,
      "ible": 939,
      "Ġdiction": 940,
      "Ġwrite": 941,
      "Ġend": 942,
      "Ġfe": 943,
      "Ġitem": 944,
      "rror": 945,
      "Ġcurrent": 946,
      "tern": 947,
      "Ġman": 948,
      "ous": 949,
      "Ġur": 950,
      "Ġcharact": 951,
      "ific": 952,
      "Ġcommand": 953,
      "wik": 954,
      "Ġproblem": 955,
      "block": 956,
      "velo": 957,
      "os": 958,
      "ib": 959,
      "main": 960,
      "ines": 961,
      "ice": 962,
      "split": 963,
      "root": 964,
      "Ġ7": 965,
      "Ġeas": 966,
      "Ġwords": 967,
      "cul": 968,
      "sw": 969,
      "ost": 970,
      "How": 971,
      "cond": 972,
      "ĠThis": 973,
      "Ġused": 974,
      "sing": 975,
      "Ġurl": 976,
      "Ġapplication": 977,
      "ĠTrue": 978,
      "vert": 979,
      "bo": 980,
      "ger": 981,
      "Ġ>": 982,
      "amp": 983,
      "ress": 984,
      "right": 985,
      "Ġthem": 986,
      "mail": 987,
      "Ġdirect": 988,
      "lp": 989,
      "Error": 990,
      "Is": 991,
      "Ġdate": 992,
      "Ġĉ": 993,
      "Ġpri": 994,
      "che": 995,
      "Ġlibrary": 996,
      "Ġarg": 997,
      "Ġpart": 998,
      ">.": 999,
      "Ġexcept": 1000,
      "url": 1001,
      "'d": 1002,
      "fig": 1003,
      "ĠĠĠĠčĊ": 1004,
      "Ġ9": 1005,
      "log": 1006,
      "Ġtype": 1007,
      "Ġpoint": 1008,
      "las": 1009,
      "Ġmin": 1010,
      "bu": 1011,
      "gle": 1012,
      "Ġwrit": 1013,
      "ĠIf": 1014,
      "Ġerror": 1015,
      "][": 1016,
      "Ġ...": 1017,
      "Ġbo": 1018,
      "Ġsent": 1019,
      "vent": 1020,
      "count": 1021,
      "load": 1022,
      "cument": 1023,
      "Ġthing": 1024,
      "https": 1025,
      "Ġvariable": 1026,
      "ph": 1027,
      "Ġsimple": 1028,
      "If": 1029,
      "Ġact": 1030,
      "Ġdis": 1031,
      "ĠDjango": 1032,
      "########": 1033,
      "([": 1034,
      "Ġgenerate": 1035,
      "Ġmult": 1036,
      "sent": 1037,
      "Ġvalues": 1038,
      "quote": 1039,
      "itle": 1040,
      "What": 1041,
      "Ġimplement": 1042,
      "Ġgood": 1043,
      "='": 1044,
      ">&": 1045,
      "velop": 1046,
      "Ġbest": 1047,
      "own": 1048,
      "ill": 1049,
      "stem": 1050,
      "Ġcount": 1051,
      "12": 1052,
      "jo": 1053,
      "args": 1054,
      "ick": 1055,
      "db": 1056,
      "Ġprocess": 1057,
      "comm": 1058,
      "Ġdictionary": 1059,
      "from": 1060,
      "pri": 1061,
      "32": 1062,
      "ery": 1063,
      "Ġtra": 1064,
      "Ġcontain": 1065,
      "000": 1066,
      "ia": 1067,
      "Ġsee": 1068,
      "ead": 1069,
      "Ġint": 1070,
      "ER": 1071,
      "ding": 1072,
      "Ġbase": 1073,
      "/\"": 1074,
      "press": 1075,
      "duct": 1076,
      "atab": 1077,
      "Ġquest": 1078,
      "ween": 1079,
      "Ġmost": 1080,
      "PI": 1081,
      "Ġtak": 1082,
      "work": 1083,
      "atabase": 1084,
      "iew": 1085,
      "des": 1086,
      "Ġopen": 1087,
      "input": 1088,
      "blockquote": 1089,
      "ump": 1090,
      "Ġdoesn": 1091,
      "For": 1092,
      "ĠGener": 1093,
      "ful": 1094,
      "lif": 1095,
      "rence": 1096,
      "Ġbetween": 1097,
      "ters": 1098,
      "ponse": 1099,
      "Ġstrings": 1100,
      "ĠFalse": 1101,
      "trib": 1102,
      "Ġhand": 1103,
      "ever": 1104,
      "Ġserver": 1105,
      "St": 1106,
      "sub": 1107,
      "son": 1108,
      "Ġsupp": 1109,
      "Ġwhere": 1110,
      "Ġits": 1111,
      "Ġansw": 1112,
      "ault": 1113,
      "Ġthey": 1114,
      "Ġfound": 1115,
      "other": 1116,
      "oogle": 1117,
      "process": 1118,
      "cause": 1119,
      "Ġcase": 1120,
      "Ġbecause": 1121,
      "Ġvery": 1122,
      "gori": 1123,
      "Ġcre": 1124,
      "ifi": 1125,
      "ache": 1126,
      "Ġthink": 1127,
      "Ġpath": 1128,
      "ĠWhat": 1129,
      "Ġspec": 1130,
      "over": 1131,
      "Ġtemp": 1132,
      "AT": 1133,
      "Ġposs": 1134,
      "Ġsolution": 1135,
      "ON": 1136,
      "sy": 1137,
      "Ġtri": 1138,
      "dir": 1139,
      "ually": 1140,
      "rame": 1141,
      "foo": 1142,
      "ures": 1143,
      "Ġmay": 1144,
      "aliz": 1145,
      "ear": 1146,
      "ST": 1147,
      "20": 1148,
      "Ġlanguage": 1149,
      "Ġ)": 1150,
      "ative": 1151,
      "value": 1152,
      "stack": 1153,
      "clu": 1154,
      "ols": 1155,
      "object": 1156,
      "les": 1157,
      "11": 1158,
      "Ġ['": 1159,
      "words": 1160,
      "type": 1161,
      "atic": 1162,
      "uch": 1163,
      "core": 1164,
      "Ġdes": 1165,
      "model": 1166,
      "ĠV": 1167,
      "its": 1168,
      "ake": 1169,
      "place": 1170,
      "roup": 1171,
      "Ġ{'": 1172,
      "()</": 1173,
      "IN": 1174,
      "Ġwithout": 1175,
      "flow": 1176,
      "comp": 1177,
      "ving": 1178,
      "mb": 1179,
      "Ġpy": 1180,
      "Ġdifferent": 1181,
      "ular": 1182,
      "qui": 1183,
      "Ġreturns": 1184,
      "bin": 1185,
      "Ġhere": 1186,
      "Ġhelp": 1187,
      "ĠIs": 1188,
      "ĠĠĠĠĠĠĠĠĠĠĠĠĠĠĠĠĠĠĠ": 1189,
      "culate": 1190,
      "Ġtakes": 1191,
      "Ġmod": 1192,
      "ĠHT": 1193,
      "----------------": 1194,
      "lear": 1195,
      "ays": 1196,
      "Ġelif": 1197,
      "ms": 1198,
      "sit": 1199,
      "Ġz": 1200,
      "Ġnp": 1201,
      "Ġiter": 1202,
      "Ġrow": 1203,
      "Ġversion": 1204,
      "abel": 1205,
      "ken": 1206,
      "ĠWindows": 1207,
      "index": 1208,
      "Ġquestion": 1209,
      "QL": 1210,
      "Ġexec": 1211,
      "ĠGenerate": 1212,
      "Ġav": 1213,
      "It": 1214,
      "Ġreally": 1215,
      "Ġargument": 1216,
      "Ġmess": 1217,
      "col": 1218,
      "train": 1219,
      "play": 1220,
      "Ġexp": 1221,
      "Ġlast": 1222,
      ").</": 1223,
      "gorith": 1224,
      "rough": 1225,
      "Ġsearch": 1226,
      "Ġ.": 1227,
      "array": 1228,
      "ial": 1229,
      "move": 1230,
      "ob": 1231,
      "Ġsecond": 1232,
      "orld": 1233,
      "\"]": 1234,
      "lient": 1235,
      "the": 1236,
      "Ġlength": 1237,
      "ome": 1238,
      "Ġunder": 1239,
      "Ġpossible": 1240,
      "ook": 1241,
      "Ġsys": 1242,
      "Ġdatabase": 1243,
      "aries": 1244,
      "Ġdocument": 1245,
      "Ġeven": 1246,
      "Ġthrough": 1247,
      "net": 1248,
      "ili": 1249,
      "Ġever": 1250,
      "ava": 1251,
      "mit": 1252,
      "du": 1253,
      "ax": 1254,
      "Ġht": 1255,
      "Ġsc": 1256,
      "Ġpage": 1257,
      "ĠSt": 1258,
      "Ġmultip": 1259,
      "fo": 1260,
      "Ġdoing": 1261,
      "Re": 1262,
      "ave": 1263,
      "Ġexpress": 1264,
      "user": 1265,
      "bers": 1266,
      "._": 1267,
      "vel": 1268,
      "Ġdirectory": 1269,
      "Ġback": 1270,
      "'re": 1271,
      "ler": 1272,
      "Ġra": 1273,
      "aut": 1274,
      "pi": 1275,
      "lat": 1276,
      "sum": 1277,
      "module": 1278,
      "Ġreg": 1279,
      "Ġsupport": 1280,
      "ĠCon": 1281,
      "Ġworks": 1282,
      "alid": 1283,
      "sort": 1284,
      "Ġ_": 1285,
      "ĠNot": 1286,
      "of": 1287,
      "sor": 1288,
      "result": 1289,
      "Ġbetter": 1290,
      "Ġanswer": 1291,
      "Ġmethods": 1292,
      "Ġmuch": 1293,
      "====": 1294,
      "pes": 1295,
      "Ġsm": 1296,
      "Ġformat": 1297,
      "Ġstate": 1298,
      "Ġlooking": 1299,
      "da": 1300,
      "200": 1301,
      "Ġalgorith": 1302,
      "Ġent": 1303,
      "Ġconvert": 1304,
      "ĠEx": 1305,
      "find": 1306,
      "ere": 1307,
      "Ġdec": 1308,
      "Ġtrying": 1309,
      "Ġseems": 1310,
      "Ġdist": 1311,
      "ččĊ": 1312,
      "Ġlet": 1313,
      "Ġsuch": 1314,
      "size": 1315,
      "True": 1316,
      "length": 1317,
      "join": 1318,
      "ything": 1319,
      "Ġlink": 1320,
      "late": 1321,
      "item": 1322,
      "ĠRe": 1323,
      "Ġexist": 1324,
      "print": 1325,
      ">.</": 1326,
      "Ġtr": 1327,
      "items": 1328,
      "Ġpack": 1329,
      "Ġloop": 1330,
      "Ġ{}": 1331,
      "side": 1332,
      "LE": 1333,
      "Ġproject": 1334,
      "write": 1335,
      "Ġcor": 1336,
      "library": 1337,
      "Ġtot": 1338,
      "ĠDe": 1339,
      "ual": 1340,
      "atch": 1341,
      "wiki": 1342,
      "open": 1343,
      "reak": 1344,
      "Ġoper": 1345,
      "char": 1346,
      "max": 1347,
      "Ġet": 1348,
      "99": 1349,
      "ose": 1350,
      "ctions": 1351,
      "25": 1352,
      "Ġchange": 1353,
      "Ġnow": 1354,
      "Ġsorted": 1355,
      "by": 1356,
      "vice": 1357,
      "Ġfunctions": 1358,
      "sert": 1359,
      "Ġ@": 1360,
      "Ġrunning": 1361,
      "ni": 1362,
      "verse": 1363,
      "ably": 1364,
      "start": 1365,
      "ader": 1366,
      "Ġrequi": 1367,
      "ustom": 1368,
      "not": 1369,
      "ĠĠĠĠĠĠ": 1370,
      "List": 1371,
      "Ġrec": 1372,
      "Ġmem": 1373,
      "lose": 1374,
      "ĠMy": 1375,
      "Ġalgorithm": 1376,
      "pack": 1377,
      "Pro": 1378,
      "Ġdict": 1379,
      "overflow": 1380,
      "ments": 1381,
      "fter": 1382,
      "Ġaut": 1383,
      "Ġindex": 1384,
      "number": 1385,
      "())": 1386,
      "Ġrequests": 1387,
      "gi": 1388,
      "lob": 1389,
      "Ġemail": 1390,
      "ux": 1391,
      "Ġinstall": 1392,
      "Ġthese": 1393,
      "Ġfact": 1394,
      "tract": 1395,
      "Ġstand": 1396,
      "Ġroot": 1397,
      "Ġequ": 1398,
      "example": 1399,
      "gine": 1400,
      "ince": 1401,
      "que": 1402,
      "Ġbuild": 1403,
      "Ġcomple": 1404,
      "Ġtotal": 1405,
      "Ġinstance": 1406,
      "Ġim": 1407,
      "]:": 1408,
      ")):": 1409,
      "Ġide": 1410,
      "Ġthread": 1411,
      "Ġinstead": 1412,
      "new": 1413,
      "Ġcharacters": 1414,
      "Ġanother": 1415,
      "Ġdevelop": 1416,
      "lower": 1417,
      "Ġsim": 1418,
      "umn": 1419,
      "arget": 1420,
      "ello": 1421,
      "stackoverflow": 1422,
      "ĠYou": 1423,
      "Ġapplicable": 1424,
      "Ġbeen": 1425,
      "ense": 1426,
      "lect": 1427,
      "\".": 1428,
      "fore": 1429,
      "ode": 1430,
      ".__": 1431,
      "ilar": 1432,
      "site": 1433,
      "Ġsource": 1434,
      "asic": 1435,
      "Con": 1436,
      "ware": 1437,
      "inst": 1438,
      "ical": 1439,
      "Ġelements": 1440,
      "be": 1441,
      "arent": 1442,
      "Ġable": 1443,
      "Ġwell": 1444,
      "bar": 1445,
      "Ġallow": 1446,
      "numbers": 1447,
      "rix": 1448,
      "Name": 1449,
      "Ġcalculate": 1450,
      "Ġ('": 1451,
      "Ġetc": 1452,
      "Ġtable": 1453,
      "Ġ--": 1454,
      "method": 1455,
      "Ġbreak": 1456,
      "arg": 1457,
      "Ġsure": 1458,
      "ming": 1459,
      "quence": 1460,
      ")]": 1461,
      "wn": 1462,
      "Ġinclu": 1463,
      "ility": 1464,
      "ale": 1465,
      "lease": 1466,
      "Ġemp": 1467,
      "aces": 1468,
      "wh": 1469,
      "attern": 1470,
      "utput": 1471,
      "Ġorder": 1472,
      "Ġobjects": 1473,
      "Ġeasi": 1474,
      "Ġmight": 1475,
      "Ġdefault": 1476,
      "33": 1477,
      "Ġlar": 1478,
      "Ġresponse": 1479,
      "ĠHTML": 1480,
      "Ġright": 1481,
      "Ġ20": 1482,
      "Ġsystem": 1483,
      "RL": 1484,
      "ors": 1485,
      "node": 1486,
      "/\">": 1487,
      "Ex": 1488,
      "loat": 1489,
      "Ġfoo": 1490,
      "ĠFor": 1491,
      "Ġpassword": 1492,
      "ient": 1493,
      "Ġaccess": 1494,
      "Ġdatetime": 1495,
      "Ġmessage": 1496,
      "su": 1497,
      "ging": 1498,
      "cy": 1499,
      "Ġfield": 1500,
      "ĠAPI": 1501,
      "Ġ''": 1502,
      "Ġcontent": 1503,
      "Ġprovi": 1504,
      "ert": 1505,
      "0000": 1506,
      "ather": 1507,
      "Ġdjango": 1508,
      "edia": 1509,
      "unc": 1510,
      "IT": 1511,
      "inux": 1512,
      "Ġstu": 1513,
      "Ġgre": 1514,
      "ql": 1515,
      "cket": 1516,
      "imal": 1517,
      "TP": 1518,
      "Ġparame": 1519,
      "Ġsk": 1520,
      "ET": 1521,
      "requ": 1522,
      "Hello": 1523,
      "iful": 1524,
      "Ġwon": 1525,
      "uple": 1526,
      "back": 1527,
      "[:": 1528,
      "autiful": 1529,
      "formation": 1530,
      "Ġ12": 1531,
      "Ġ!": 1532,
      "cont": 1533,
      "Ġbit": 1534,
      "ount": 1535,
      "ilter": 1536,
      "imum": 1537,
      "ingle": 1538,
      "atures": 1539,
      "lean": 1540,
      "Ġproduct": 1541,
      "Ġmain": 1542,
      "Th": 1543,
      "format": 1544,
      "cre": 1545,
      "ggest": 1546,
      "igh": 1547,
      "Field": 1548,
      "hell": 1549,
      "temp": 1550,
      "34": 1551,
      "range": 1552,
      "Ġtheir": 1553,
      "attr": 1554,
      "Ġsimp": 1555,
      "++": 1556,
      "Ġattrib": 1557,
      "An": 1558,
      "Ġbin": 1559,
      "inter": 1560,
      "vious": 1561,
      "nect": 1562,
      "Ġperform": 1563,
      "Ġsentence": 1564,
      "**": 1565,
      "Ġappro": 1566,
      "utes": 1567,
      "ĠPy": 1568,
      "Ġob": 1569,
      "present": 1570,
      "Ġbased": 1571,
      "ove": 1572,
      "ature": 1573,
      "Ġlines": 1574,
      "ee": 1575,
      "Ġremove": 1576,
      "Ġcharacter": 1577,
      "std": 1578,
      "Ġprob": 1579,
      "Ġlong": 1580,
      "ramework": 1581,
      "Ġeasy": 1582,
      "Do": 1583,
      "To": 1584,
      "Ġ[\"": 1585,
      "Ġmatch": 1586,
      "Ġdown": 1587,
      "some": 1588,
      "Ġsimilar": 1589,
      "gex": 1590,
      "Ġproper": 1591,
      "Ġafter": 1592,
      "Ġcalled": 1593,
      "Ġ'__": 1594,
      "ready": 1595,
      "Ġresults": 1596,
      "ibon": 1597,
      "Ġfast": 1598,
      "older": 1599,
      "questions": 1600,
      "fit": 1601,
      "face": 1602,
      "acci": 1603,
      "Ġ!=": 1604,
      "eautiful": 1605,
      "view": 1606,
      "state": 1607,
      "Ġpref": 1608,
      "Ġsingle": 1609,
      "ipedia": 1610,
      "Ġuni": 1611,
      "ĠJava": 1612,
      "base": 1613,
      "bug": 1614,
      "Ġspecific": 1615,
      "Ġlists": 1616,
      "vir": 1617,
      "Ġinformation": 1618,
      "uth": 1619,
      "Ġprime": 1620,
      "16": 1621,
      "DE": 1622,
      "dev": 1623,
      "ibonacci": 1624,
      "Ġag": 1625,
      "ason": 1626,
      "learn": 1627,
      "pper": 1628,
      "Ġlot": 1629,
      "Ġstandard": 1630,
      "ron": 1631,
      ";/": 1632,
      "Ġoff": 1633,
      "cho": 1634,
      "title": 1635,
      "Ġpla": 1636,
      "exec": 1637,
      "struct": 1638,
      "Ġanyone": 1639,
      "element": 1640,
      "Ġsize": 1641,
      "Ġalready": 1642,
      "My": 1643,
      "\\\\": 1644,
      "Ġ|": 1645,
      "Ġinteg": 1646,
      "Ġconfig": 1647,
      "Ġwriting": 1648,
      "lasses": 1649,
      "inal": 1650,
      "Ch": 1651,
      "source": 1652,
      "Ġbefore": 1653,
      "Ġworking": 1654,
      "ĠOutput": 1655,
      "64": 1656,
      "iter": 1657,
      "Soup": 1658,
      "ializ": 1659,
      "Ġlear": 1660,
      "og": 1661,
      "ĠPro": 1662,
      "Ġlocal": 1663,
      "ending": 1664,
      "with": 1665,
      "xml": 1666,
      "ĠK": 1667,
      "ffic": 1668,
      "File": 1669,
      "Ġrepresent": 1670,
      "Py": 1671,
      "iment": 1672,
      "opt": 1673,
      "Ġstore": 1674,
      "Ġtrain": 1675,
      "Ġown": 1676,
      "Ġsplit": 1677,
      "eautifulSoup": 1678,
      "pass": 1679,
      "Ġmak": 1680,
      "RE": 1681,
      "SE": 1682,
      "lu": 1683,
      "latform": 1684,
      "viron": 1685,
      "exe": 1686,
      "Ġĉĉ": 1687,
      "Ġmultiple": 1688,
      "ark": 1689,
      "Ġdet": 1690,
      "Ġmemory": 1691,
      "Ġdone": 1692,
      "dd": 1693,
      "ull": 1694,
      "ilt": 1695,
      "Ġsuggest": 1696,
      "anks": 1697,
      "ails": 1698,
      "Ġty": 1699,
      "doc": 1700,
      "Ġquery": 1701,
      "Ġthings": 1702,
      "ross": 1703,
      "Ġnode": 1704,
      "head": 1705,
      "util": 1706,
      "Ġclient": 1707,
      "ody": 1708,
      "Ġmodels": 1709,
      "Ġexpression": 1710,
      "field": 1711,
      "plo": 1712,
      "Ġmany": 1713,
      "umpy": 1714,
      "Ġitems": 1715,
      "google": 1716,
      "Ġpost": 1717,
      "orial": 1718,
      "Ġform": 1719,
      "Ġevery": 1720,
      "Ġjson": 1721,
      "01": 1722,
      "braries": 1723,
      "tty": 1724,
      "Al": 1725,
      "port": 1726,
      "Ġhaving": 1727,
      "Ġcustom": 1728,
      "next": 1729,
      "dist": 1730,
      "String": 1731,
      "ices": 1732,
      "Ġsay": 1733,
      "Ġpd": 1734,
      "Ġput": 1735,
      "Ġextract": 1736,
      "Ġgra": 1737,
      "ĠDo": 1738,
      "ĠURL": 1739,
      "].": 1740,
      "Ġsklearn": 1741,
      "search": 1742,
      "Ġmach": 1743,
      "Ġtried": 1744,
      "'ll": 1745,
      "Ġtag": 1746,
      "Ġclasses": 1747,
      "','": 1748,
      "ither": 1749,
      "host": 1750,
      "ĠXML": 1751,
      "function": 1752,
      "Ġbeing": 1753,
      "Ġblock": 1754,
      "Ġmodules": 1755,
      "Ġtake": 1756,
      "ner": 1757,
      "Ġparse": 1758,
      "Ġnon": 1759,
      "ps": 1760,
      "Ġter": 1761,
      "Ġcontains": 1762,
      "filename": 1763,
      "Ġwritten": 1764,
      "Ġboth": 1765,
      "ton": 1766,
      "ongest": 1767,
      "Edit": 1768,
      "django": 1769,
      "tic": 1770,
      "Ġstill": 1771,
      ">(": 1772,
      "OM": 1773,
      "[\"": 1774,
      "Ġsince": 1775,
      "Ġ11": 1776,
      "Ġwhy": 1777,
      "################": 1778,
      "ified": 1779,
      "run": 1780,
      "den": 1781,
      "().": 1782,
      "wikipedia": 1783,
      "Ġarguments": 1784,
      "Ġtarget": 1785,
      "map": 1786,
      "Ġprobably": 1787,
      "sions": 1788,
      "Ġreason": 1789,
      "most": 1790,
      "ĠĠĠĠĠĠĠĠĠĠĠĠĠĠĠĠĠĠĠĠĠĠĠĠĠĠĠĠĠĠĠĠ": 1791,
      "ise": 1792,
      "ash": 1793,
      "Ġlibraries": 1794,
      "csv": 1795,
      "Ġmean": 1796,
      "Ġbasic": 1797,
      "erson": 1798,
      "Here": 1799,
      "So": 1800,
      "Ġ200": 1801,
      "alue": 1802,
      "Ġpretty": 1803,
      "nection": 1804,
      "tx": 1805,
      "NT": 1806,
      "None": 1807,
      "gin": 1808,
      "Ġ]": 1809,
      "'])": 1810,
      "80": 1811,
      "Ġdisplay": 1812,
      "50": 1813,
      "Ġframework": 1814,
      "Ġnext": 1815,
      "Ġgreat": 1816,
      "odel": 1817,
      "Ġtoo": 1818,
      "verage": 1819,
      "Ġquick": 1820,
      "Ġ**": 1821,
      "Ġactually": 1822,
      "Ã¢": 1823,
      "Ġ\\": 1824,
      "]]": 1825,
      "local": 1826,
      "ĠAn": 1827,
      "Ġdid": 1828,
      "models": 1829,
      "Ġposit": 1830,
      "Ġgoing": 1831,
      "sys": 1832,
      "Ġstruct": 1833,
      "hn": 1834,
      "ĠBeautifulSoup": 1835,
      "En": 1836,
      "Ġ$": 1837,
      "Ġaround": 1838,
      "Ġprogramming": 1839,
      "Ġtitle": 1840,
      "Ġanything": 1841,
      "ĠFile": 1842,
      "script": 1843,
      "rest": 1844,
      "Ġnumpy": 1845,
      "Ġcorrect": 1846,
      "lection": 1847,
      "Ġdataset": 1848,
      "ask": 1849,
      "'}": 1850,
      "raw": 1851,
      "SQL": 1852,
      "yle": 1853,
      "\",\"": 1854,
      "vis": 1855,
      "Ġfilename": 1856,
      "izer": 1857,
      "Ġoption": 1858,
      "ifier": 1859,
      "oid": 1860,
      "random": 1861,
      "parse": 1862,
      "UI": 1863,
      "wargs": 1864,
      "Ġwin": 1865,
      "Ġvariables": 1866,
      "24": 1867,
      "group": 1868,
      "ved": 1869,
      "SI": 1870,
      "let": 1871,
      "ait": 1872,
      "yn": 1873,
      "Ġca": 1874,
      "Ġempty": 1875,
      "erge": 1876,
      "But": 1877,
      "md": 1878,
      "Ġcommon": 1879,
      "var": 1880,
      "Ġdb": 1881,
      "air": 1882,
      "ways": 1883,
      "info": 1884,
      "keep": 1885,
      "rid": 1886,
      "Ġshell": 1887,
      "Ġbinary": 1888,
      "az": 1889,
      "Ġevent": 1890,
      "Ġabove": 1891,
      "Ġurllib": 1892,
      "Ġnames": 1893,
      "fficient": 1894,
      "ME": 1895,
      "tt": 1896,
      "ÂĢ": 1897,
      "Ġdifference": 1898,
      "nums": 1899,
      "board": 1900,
      "100": 1901,
      "cation": 1902,
      "andler": 1903,
      "Ġunit": 1904,
      "Ġgenerator": 1905,
      "Ġsto": 1906,
      "Ġwithin": 1907,
      "token": 1908,
      "30": 1909,
      "atus": 1910,
      "tools": 1911,
      "Class": 1912,
      "Ġcolumn": 1913,
      "PE": 1914,
      "ith": 1915,
      "ĠCo": 1916,
      "Ġpackage": 1917,
      "mut": 1918,
      "Ġuseful": 1919,
      "Ġtrans": 1920,
      "Ġwid": 1921,
      "Ġidea": 1922,
      "Ġsite": 1923,
      "ĠDes": 1924,
      "ailable": 1925,
      "lete": 1926,
      "ÂĢÂ": 1927,
      "Ġedit": 1928,
      "datetime": 1929,
      "ĠĠĠĠĠĠĠĠĠ": 1930,
      "Ġtop": 1931,
      "child": 1932,
      "Ġintegers": 1933,
      "password": 1934,
      "replace": 1935,
      "Ġsoup": 1936,
      "Ġcl": 1937,
      "ĠBut": 1938,
      "Ġhandle": 1939,
      "ined": 1940,
      "Ġ100": 1941,
      "Ġprints": 1942,
      "Ġdocumentation": 1943,
      "Ġuses": 1944,
      "left": 1945,
      "Ġmis": 1946,
      "Ġsa": 1947,
      "Ġeither": 1948,
      "how": 1949,
      "Ġkeep": 1950,
      "Ġusers": 1951,
      "Ġcurrently": 1952,
      "lobal": 1953,
      "vironment": 1954,
      "ĠSQL": 1955,
      "usr": 1956,
      "mes": 1957,
      "Ġmachine": 1958,
      "acy": 1959,
      "Ġoptim": 1960,
      "Ġwhe": 1961,
      "ey": 1962,
      "lask": 1963,
      "CT": 1964,
      "lan": 1965,
      "alled": 1966,
      "Ġkind": 1967,
      "Ġautom": 1968,
      "ntax": 1969,
      "Ġrecomm": 1970,
      "Ġhad": 1971,
      "ference": 1972,
      "Ġinteger": 1973,
      "ha": 1974,
      "Ġgot": 1975,
      "top": 1976,
      "Ġlooks": 1977,
      "Ġbuilt": 1978,
      "Ġsmall": 1979,
      "Ġtests": 1980,
      "Ġhttp": 1981,
      "Test": 1982,
      "ohn": 1983,
      "this": 1984,
      "requen": 1985,
      "Ġreverse": 1986,
      "Ġwho": 1987,
      "ĠSo": 1988,
      "txt": 1989,
      "sive": 1990,
      "Ġhapp": 1991,
      "values": 1992,
      "14": 1993,
      "ĠCan": 1994,
      "ives": 1995,
      "ately": 1996,
      "Ġvalid": 1997,
      "Ġplay": 1998,
      "Ġthose": 1999,
      "ality": 2000,
      "Ġph": 2001,
      "Ġprodu": 2002,
      ">__": 2003,
      "((": 2004,
      "15": 2005,
      "18": 2006,
      "Ġpattern": 2007,
      "Ġargs": 2008,
      "project": 2009,
      "uby": 2010,
      "stand": 2011,
      "Ġavailable": 2012,
      "Ġstd": 2013,
      "Se": 2014,
      "mod": 2015,
      "Ġsetting": 2016,
      "alent": 2017,
      "Ġsepar": 2018,
      "Ġgroup": 2019,
      "execute": 2020,
      ");": 2021,
      "rc": 2022,
      "Ġalways": 2023,
      "ĠOS": 2024,
      "Ġhtml": 2025,
      "19": 2026,
      "There": 2027,
      "table": 2028,
      "60": 2029,
      "37": 2030,
      "Ġthough": 2031,
      "\"><": 2032,
      "Ġisn": 2033,
      "Ġsubprocess": 2034,
      "Ġinterpre": 2035,
      "Ġsign": 2036,
      "Ġ25": 2037,
      "config": 2038,
      "label": 2039,
      "win": 2040,
      "rib": 2041,
      "ivalent": 2042,
      "'],": 2043,
      "content": 2044,
      "case": 2045,
      "close": 2046,
      "pache": 2047,
      "any": 2048,
      "json": 2049,
      "Ġgive": 2050,
      "17": 2051,
      "Ġnor": 2052,
      "'))": 2053,
      "ccur": 2054,
      "ĠApp": 2055,
      "Ġregular": 2056,
      "lst": 2057,
      "Ġ15": 2058,
      "ĠDesign": 2059,
      "spe": 2060,
      "Ġsequence": 2061,
      "Ġmatrix": 2062,
      "/</": 2063,
      "ĠY": 2064,
      "Ġlanguages": 2065,
      "mess": 2066,
      "Ġrather": 2067,
      "pop": 2068,
      "ĠLinux": 2069,
      "ED": 2070,
      "Ġshow": 2071,
      "\"\"\"": 2072,
      "zip": 2073,
      "Ġyield": 2074,
      "!</": 2075,
      "Ġwhether": 2076,
      "body": 2077,
      "pect": 2078,
      "Ġreplace": 2079,
      ".\"": 2080,
      "âĢ": 2081,
      "onth": 2082,
      "AR": 2083,
      "OR": 2084,
      "Ġtree": 2085,
      "Ġoptions": 2086,
      ">\"": 2087,
      "Ġcopy": 2088,
      "ĠGet": 2089,
      "score": 2090,
      "Ġport": 2091,
      "version": 2092,
      "Ġlat": 2093,
      "ĠHowever": 2094,
      "Ġenvironment": 2095,
      "De": 2096,
      "SS": 2097,
      "cat": 2098,
      "unk": 2099,
      "Ġsimply": 2100,
      "old": 2101,
      "Ġview": 2102,
      "llo": 2103,
      "Ġwx": 2104,
      "Ġtoken": 2105,
      "ĠQ": 2106,
      "Ġseem": 2107,
      "ĠTra": 2108,
      "Ġinterest": 2109,
      "sv": 2110,
      "ception": 2111,
      "Ġequivalent": 2112,
      ":\\": 2113,
      "Ġinit": 2114,
      "query": 2115,
      "ition": 2116,
      "Ġaddress": 2117,
      "ves": 2118,
      "Ġage": 2119,
      "Ġplt": 2120,
      "26": 2121,
      "Ġdig": 2122,
      "Ġsyntax": 2123,
      "ced": 2124,
      "ĠTh": 2125,
      "Ġorig": 2126,
      "server": 2127,
      "ches": 2128,
      "Ġprefer": 2129,
      "eve": 2130,
      "return": 2131,
      "lines": 2132,
      "wx": 2133,
      "Ġsw": 2134,
      "'.": 2135,
      "vect": 2136,
      "Ġexecut": 2137,
      "Ġexpect": 2138,
      "Ġlarge": 2139,
      "ict": 2140,
      "Ġ[[": 2141,
      "Ġimplementation": 2142,
      "stri": 2143,
      "Ġregex": 2144,
      "Ġchild": 2145,
      "Ġro": 2146,
      "erver": 2147,
      "Ġtool": 2148,
      "iled": 2149,
      "pypi": 2150,
      "Ġspaces": 2151,
      "========": 2152,
      "Ġleast": 2153,
      "Ġinterface": 2154,
      "Ġcreating": 2155,
      "tag": 2156,
      "ized": 2157,
      "uni": 2158,
      "bit": 2159,
      "ted": 2160,
      "Ġpres": 2161,
      "Ġchang": 2162,
      "Ġstatic": 2163,
      "Ġexact": 2164,
      "Ġinstalled": 2165,
      "Ġparser": 2166,
      "Ġimage": 2167,
      "AL": 2168,
      "},": 2169,
      "ateg": 2170,
      "Ġcomput": 2171,
      "point": 2172,
      "ling": 2173,
      "Ġ//": 2174,
      "request": 2175,
      "less": 2176,
      "Ġfloat": 2177,
      "Element": 2178,
      "Ġlimit": 2179,
      "(),": 2180,
      "Ġload": 2181,
      "uation": 2182,
      "Ġmust": 2183,
      "HT": 2184,
      "page": 2185,
      "unter": 2186,
      "Ġartic": 2187,
      "Ġfew": 2188,
      "gre": 2189,
      "gener": 2190,
      "els": 2191,
      "Ġmerge": 2192,
      "ract": 2193,
      "Ġlevel": 2194,
      "uplic": 2195,
      ">[": 2196,
      "coding": 2197,
      "leep": 2198,
      "river": 2199,
      "Ġlongest": 2200,
      "Ġagain": 2201,
      "ID": 2202,
      "Ġlabel": 2203,
      "22": 2204,
      "req": 2205,
      "Ġimp": 2206,
      "web": 2207,
      "dering": 2208,
      "api": 2209,
      "Ġid": 2210,
      "term": 2211,
      "gress": 2212,
      "ĠTo": 2213,
      "lamb": 2214,
      "88": 2215,
      "sc": 2216,
      "unch": 2217,
      "Ġparameters": 2218,
      "lambda": 2219,
      "Ġtab": 2220,
      "Ġseen": 2221,
      "medi": 2222,
      "itch": 2223,
      "message": 2224,
      "Ġfeatures": 2225,
      "kwargs": 2226,
      "email": 2227,
      "Ġiss": 2228,
      "ets": 2229,
      "Ġ`": 2230,
      "ĠGUI": 2231,
      "post": 2232,
      "Ġmakes": 2233,
      "eras": 2234,
      "ĠDevelop": 2235,
      "eop": 2236,
      "sign": 2237,
      "Ġfig": 2238,
      "ide": 2239,
      "Ġfilter": 2240,
      "Ġbrow": 2241,
      "ically": 2242,
      "rypt": 2243,
      "rol": 2244,
      "Ġdebug": 2245,
      "ftware": 2246,
      "Ġplatform": 2247,
      "Ġwindow": 2248,
      "Ġ\",": 2249,
      "types": 2250,
      "Ġrecent": 2251,
      "Ġsend": 2252,
      "ears": 2253,
      "67": 2254,
      "Num": 2255,
      "df": 2256,
      "ian": 2257,
      "Ġold": 2258,
      "etch": 2259,
      "Ġmid": 2260,
      "__':": 2261,
      "cription": 2262,
      "strings": 2263,
      "which": 2264,
      "lite": 2265,
      "ĠUn": 2266,
      "27": 2267,
      "GI": 2268,
      "--------------------------------": 2269,
      "ĠWorld": 2270,
      "Ġmaximum": 2271,
      "Ġexception": 2272,
      "Thanks": 2273,
      "way": 2274,
      "Ġlitt": 2275,
      "Ġgetting": 2276,
      "Ġlittle": 2277,
      "UT": 2278,
      "When": 2279,
      "call": 2280,
      "Ġfolder": 2281,
      "Par": 2282,
      "Ġleft": 2283,
      "mag": 2284,
      "rences": 2285,
      "veral": 2286,
      "active": 2287,
      "peri": 2288,
      "Ġunderstand": 2289,
      "amb": 2290,
      "curacy": 2291,
      "Ġstatement": 2292,
      "ared": 2293,
      "dis": 2294,
      "Ġtuple": 2295,
      "Ġpop": 2296,
      "like": 2297,
      "Ġexten": 2298,
      "Ġwra": 2299,
      "Ġclean": 2300,
      "Ġlst": 2301,
      "Ġsocket": 2302,
      "28": 2303,
      "Wh": 2304,
      "Ġnice": 2305,
      "Ġpartic": 2306,
      "Ġsentiment": 2307,
      "Ġstack": 2308,
      "ĠTest": 2309,
      "instance": 2310,
      "...</": 2311,
      "Ġseveral": 2312,
      "Ġshort": 2313,
      "ought": 2314,
      "ialize": 2315,
      "ĠĠĠĠĠĠĠĠĠĠĠĠĠĠĠĠĠĠĠĠĠĠĠ": 2316,
      "param": 2317,
      "sentence": 2318,
      "packages": 2319,
      "Model": 2320,
      "ze": 2321,
      "urse": 2322,
      "Ġunique": 2323,
      "90": 2324,
      "ĠPrint": 2325,
      "Ġitself": 2326,
      "Ġperformance": 2327,
      ">#": 2328,
      "And": 2329,
      "qlite": 2330,
      "Ġfine": 2331,
      "Ġinsert": 2332,
      "ĠThere": 2333,
      "ĠWh": 2334,
      "Ġquite": 2335,
      "Ġdevelopment": 2336,
      "ĠPer": 2337,
      "keys": 2338,
      "ification": 2339,
      "Ġzip": 2340,
      "Ġsample": 2341,
      "''": 2342,
      "As": 2343,
      "HP": 2344,
      "vant": 2345,
      "sql": 2346,
      "Ġcho": 2347,
      "choice": 2348,
      "Ġfar": 2349,
      "Ġmet": 2350,
      "Ġbar": 2351,
      "Ġxml": 2352,
      "Ġrecommend": 2353,
      "requency": 2354,
      "'):": 2355,
      "connect": 2356,
      "Ġnamed": 2357,
      "Ġneeds": 2358,
      "35": 2359,
      "Data": 2360,
      "xy": 2361,
      "Ġstuff": 2362,
      "day": 2363,
      "pping": 2364,
      "__.": 2365,
      "Ġnums": 2366,
      "Ġnet": 2367,
      "Ġdir": 2368,
      "cale": 2369,
      "emp": 2370,
      "Ġparticular": 2371,
      "Ġefficient": 2372,
      "direct": 2373,
      "ĠEn": 2374,
      "Ġapproach": 2375,
      "Tree": 2376,
      "Ġinv": 2377,
      "ouble": 2378,
      "Ġconnection": 2379,
      "2008": 2380,
      "cli": 2381,
      "aly": 2382,
      "Ġdep": 2383,
      "Ġavoid": 2384,
      "Ġinclude": 2385,
      "level": 2386,
      "Ġless": 2387,
      "Ġtemplate": 2388,
      "Some": 2389,
      "Ġpoints": 2390,
      "App": 2391,
      "ender": 2392,
      "Ġhigh": 2393,
      "ĠAl": 2394,
      "vector": 2395,
      "Ġsetup": 2396,
      "price": 2397,
      "Ġexists": 2398,
      "Ġattribute": 2399,
      "eded": 2400,
      "orator": 2401,
      "alk": 2402,
      "Ġ\"\"": 2403,
      "Ġcreated": 2404,
      "Ġparent": 2405,
      "unct": 2406,
      "Ġtimes": 2407,
      "compile": 2408,
      "Ġfaster": 2409,
      "cc": 2410,
      "Ġinside": 2411,
      "ĠGoogle": 2412,
      "uthor": 2413,
      "We": 2414,
      "ire": 2415,
      "current": 2416,
      "parser": 2417,
      "Ġwebsite": 2418,
      "box": 2419,
      "Ġletter": 2420,
      "Ġhappen": 2421,
      "Handler": 2422,
      "IL": 2423,
      "link": 2424,
      "tes": 2425,
      "where": 2426,
      "Ġtypes": 2427,
      "Ġele": 2428,
      "Ġseconds": 2429,
      "stdout": 2430,
      "Ġfix": 2431,
      "Ġindent": 2432,
      "Ġhost": 2433,
      "dition": 2434,
      "Ġcomplex": 2435,
      "Char": 2436,
      ":\",": 2437,
      "Ġdf": 2438,
      "ceback": 2439,
      "Ġstyle": 2440,
      "ĠSe": 2441,
      "ention": 2442,
      "cii": 2443,
      "John": 2444,
      "what": 2445,
      "Ġaccept": 2446,
      "Ġ/>": 2447,
      "Value": 2448,
      "Ġvia": 2449,
      "forge": 2450,
      "Ġraise": 2451,
      "ping": 2452,
      "Ġlearning": 2453,
      "plot": 2454,
      "first": 2455,
      "ward": 2456,
      "Ġask": 2457,
      "trans": 2458,
      "obj": 2459,
      "AB": 2460,
      "AC": 2461,
      "False": 2462,
      "Ġfull": 2463,
      "uff": 2464,
      "cial": 2465,
      "Ġdownload": 2466,
      "ccess": 2467,
      "response": 2468,
      "ltk": 2469,
      "Ġenum": 2470,
      "Ġlogging": 2471,
      "Ġwindows": 2472,
      "ĠString": 2473,
      "Ġglobal": 2474,
      "Ġjob": 2475,
      "Ġcontaining": 2476,
      "man": 2477,
      "('/": 2478,
      "Ġupdate": 2479,
      "ynam": 2480,
      "Ġoccur": 2481,
      "Ġdefine": 2482,
      "eople": 2483,
      "ambda": 2484,
      "book": 2485,
      "Ġaverage": 2486,
      "ream": 2487,
      "als": 2488,
      "Res": 2489,
      "Ġgues": 2490,
      "sole": 2491,
      "sorted": 2492,
      "uples": 2493,
      "ĠIP": 2494,
      "posit": 2495,
      "nipp": 2496,
      "Ġsave": 2497,
      ">:</": 2498,
      "tw": 2499,
      "esca": 2500,
      "ability": 2501,
      "Ġconn": 2502,
      "Ġcalls": 2503,
      "ope": 2504,
      "Ġbelow": 2505,
      "gn": 2506,
      "ities": 2507,
      "ulation": 2508,
      "__</": 2509,
      "Ġkeys": 2510,
      "Ġattributes": 2511,
      "Ġboard": 2512,
      "Ġrequire": 2513,
      "Ġrequired": 2514,
      "Ġatt": 2515,
      "Does": 2516,
      "sourceforge": 2517,
      "mis": 2518,
      "Ġselect": 2519,
      "admin": 2520,
      "product": 2521,
      "Ġscripts": 2522,
      "OT": 2523,
      "hr": 2524,
      "wid": 2525,
      "ĠList": 2526,
      "Ar": 2527,
      "Type": 2528,
      "ances": 2529,
      "rop": 2530,
      "ĠPHP": 2531,
      "Ġcourse": 2532,
      "bot": 2533,
      "part": 2534,
      "match": 2535,
      "td": 2536,
      "Ġworld": 2537,
      "update": 2538,
      "ertain": 2539,
      "down": 2540,
      "copy": 2541,
      "unks": 2542,
      "Ġcannot": 2543,
      "Ġheader": 2544,
      "Ġpeople": 2545,
      "lish": 2546,
      "aps": 2547,
      "Ġparameter": 2548,
      "[-": 2549,
      "func": 2550,
      "Ġdesign": 2551,
      "thub": 2552,
      "Ġind": 2553,
      "dio": 2554,
      "github": 2555,
      "AP": 2556,
      "OST": 2557,
      "Ġpas": 2558,
      "Ġlib": 2559,
      "andas": 2560,
      "Ġneeded": 2561,
      "ĠWe": 2562,
      "mutations": 2563,
      "Ġexactly": 2564,
      "pr": 2565,
      "ĠAnd": 2566,
      "xx": 2567,
      "hed": 2568,
      "Ġreal": 2569,
      "Ġinterpreter": 2570,
      "Ġnltk": 2571,
      "ends": 2572,
      "Ġways": 2573,
      "space": 2574,
      "Ġpredi": 2575,
      "Ġscra": 2576,
      "Ġxrange": 2577,
      "ublic": 2578,
      "Ġexecute": 2579,
      "fields": 2580,
      "Ġscore": 2581,
      "Ġwere": 2582,
      "SON": 2583,
      "mal": 2584,
      "ĉĉ": 2585,
      "ĠĠĠĠĠĠĠĠčĊ": 2586,
      "Ġ(<": 2587,
      "ird": 2588,
      "Ġadmin": 2589,
      "Ġrecord": 2590,
      "Ġcomplete": 2591,
      "Ġ?": 2592,
      "):</": 2593,
      "ush": 2594,
      "Ġrows": 2595,
      "Ġdivis": 2596,
      "Ġfields": 2597,
      "ons": 2598,
      "Ġclose": 2599,
      "Ġdoc": 2600,
      "Ġlambda": 2601,
      "Ġexperi": 2602,
      "Ġmodify": 2603,
      "ND": 2604,
      "]))": 2605,
      "Ġdelete": 2606,
      "Ġgame": 2607,
      "Ġreading": 2608,
      "Ġdistrib": 2609,
      "Ġoriginal": 2610,
      "Ġquot": 2611,
      "IC": 2612,
      "check": 2613,
      "fact": 2614,
      "rehen": 2615,
      "Ġeasily": 2616,
      "Ġdetect": 2617,
      "ĠComp": 2618,
      "Ġbind": 2619,
      "Ġdiff": 2620,
      "termine": 2621,
      "cent": 2622,
      "hello": 2623,
      "loy": 2624,
      "Ġsomeone": 2625,
      "Ad": 2626,
      "gr": 2627,
      "ultip": 2628,
      "perty": 2629,
      "Ġhead": 2630,
      "Ġturn": 2631,
      "Ġstop": 2632,
      "Ġvis": 2633,
      "Ġexamples": 2634,
      "Ġstructure": 2635,
      "Ġut": 2636,
      "light": 2637,
      "Ġthought": 2638,
      "ĠWhen": 2639,
      "float": 2640,
      "ru": 2641,
      "Ġcertain": 2642,
      "asks": 2643,
      "'),": 2644,
      "using": 2645,
      "Can": 2646,
      "Ġour": 2647,
      "Ġ<=": 2648,
      "alind": 2649,
      "Ġonce": 2650,
      "lication": 2651,
      "Ġcontext": 2652,
      "Ġchanges": 2653,
      "Ġstep": 2654,
      "SC": 2655,
      "Ġgu": 2656,
      "Ġprovide": 2657,
      "Ġwondering": 2658,
      "29": 2659,
      "hand": 2660,
      "cores": 2661,
      "Ġmath": 2662,
      "uration": 2663,
      "ĠReturn": 2664,
      "Ġeasier": 2665,
      "Ġ'''": 2666,
      "Ġtk": 2667,
      "Ġcursor": 2668,
      "Ġpredict": 2669,
      "valid": 2670,
      "oring": 2671,
      "Ġconf": 2672,
      "Ġnecess": 2673,
      "+)": 2674,
      "LL": 2675,
      "Note": 2676,
      "aded": 2677,
      "lex": 2678,
      "ession": 2679,
      "ĠCh": 2680,
      "oute": 2681,
      "system": 2682,
      "Ġdistance": 2683,
      "Ġobvious": 2684,
      "{'": 2685,
      "Ġsit": 2686,
      "Ġcalling": 2687,
      "!\"": 2688,
      "OP": 2689,
      "Time": 2690,
      "ood": 2691,
      "Ġtell": 2692,
      "ternal": 2693,
      ">'": 2694,
      "ox": 2695,
      "udio": 2696,
      "Ġmention": 2697,
      "ĠAny": 2698,
      "Ġposition": 2699,
      "strip": 2700,
      "dig": 2701,
      "ĠOr": 2702,
      "predict": 2703,
      "Ġservice": 2704,
      "default": 2705,
      "Ġpandas": 2706,
      "Ġwor": 2707,
      "though": 2708,
      "Ġreference": 2709,
      "ower": 2710,
      "Ġhash": 2711,
      "Ġfeature": 2712,
      "Ġplace": 2713,
      "04": 2714,
      "Key": 2715,
      "ek": 2716,
      "ts": 2717,
      "valu": 2718,
      "cursor": 2719,
      "89": 2720,
      "Script": 2721,
      "rome": 2722,
      "Ġunt": 2723,
      "Ġ1000": 2724,
      "ĠFibonacci": 2725,
      "Ġspace": 2726,
      "Ġident": 2727,
      "ences": 2728,
      "spect": 2729,
      "However": 2730,
      "ched": 2731,
      "DB": 2732,
      "cle": 2733,
      "Ġsqlite": 2734,
      "thread": 2735,
      "Ġthree": 2736,
      "Ġ',": 2737,
      "Ġ(\"": 2738,
      "ics": 2739,
      "quot": 2740,
      "Ġ30": 2741,
      "Ġprice": 2742,
      "Dict": 2743,
      "ws": 2744,
      "rec": 2745,
      "Ġcap": 2746,
      "Ġmark": 2747,
      "Ġretri": 2748,
      "Ġhard": 2749,
      "Ġ\")": 2750,
      "Ġaltern": 2751,
      "Ġcontrol": 2752,
      "chemy": 2753,
      "subprocess": 2754,
      "ING": 2755,
      ">:": 2756,
      "dle": 2757,
      "mote": 2758,
      "sol": 2759,
      "Ġdynam": 2760,
      "ĠĠĠĠĠĠĠĠĠĠĠĠ": 2761,
      "Ġarticle": 2762,
      "ta": 2763,
      "Ġ,": 2764,
      "ascii": 2765,
      "Ġhaven": 2766,
      "Ġamount": 2767,
      "Set": 2768,
      "come": 2769,
      "Ġsolve": 2770,
      "mages": 2771,
      "ĠFlask": 2772,
      "ATH": 2773,
      "argv": 2774,
      "Ġautomatic": 2775,
      "Ġperson": 2776,
      "env": 2777,
      "ings": 2778,
      "ĠMySQL": 2779,
      "55": 2780,
      "86": 2781,
      "event": 2782,
      "rand": 2783,
      "Ġ\"&": 2784,
      "Ġfin": 2785,
      "ene": 2786,
      "Ġswitch": 2787,
      "=['": 2788,
      "abc": 2789,
      "licit": 2790,
      "prime": 2791,
      "ars": 2792,
      "Ġdetermine": 2793,
      "Ġparsing": 2794,
      "AD": 2795,
      "wd": 2796,
      "ĠĠĠĠĠĠĠĠĠĠ": 2797,
      "Ġconstruct": 2798,
      "ĠHTTP": 2799,
      "crypt": 2800,
      "ik": 2801,
      "Ġvector": 2802,
      "Ġallows": 2803,
      "Ġlearn": 2804,
      "Ġmissing": 2805,
      "roject": 2806,
      "ĠCheck": 2807,
      "ntic": 2808,
      "Ġfunctionality": 2809,
      "Ġcases": 2810,
      "Ġeverything": 2811,
      "Ġlinks": 2812,
      "Enter": 2813,
      "Ġissue": 2814,
      "ape": 2815,
      "ĠPar": 2816,
      "soft": 2817,
      "nicode": 2818,
      "Ġpassed": 2819,
      "IO": 2820,
      "Ġdefined": 2821,
      "tocol": 2822,
      "ĠHere": 2823,
      "Ġaddition": 2824,
      "\"))": 2825,
      "13": 2826,
      "DAT": 2827,
      "hentic": 2828,
      "Ġ19": 2829,
      "Ġenough": 2830,
      "Ġexisting": 2831,
      "Ġfactorial": 2832,
      "Ġuntil": 2833,
      "\"</": 2834,
      "eg": 2835,
      "vie": 2836,
      "ĠID": 2837,
      "cel": 2838,
      "Ġext": 2839,
      "Ġtesting": 2840,
      "Ġexpressions": 2841,
      "Text": 2842,
      "rong": 2843,
      "Ġsqu": 2844,
      "Ġren": 2845,
      "ision": 2846,
      "img": 2847,
      "ĠJSON": 2848,
      ".)</": 2849,
      "ties": 2850,
      "utorial": 2851,
      "Ġexit": 2852,
      "Ġdictionaries": 2853,
      "Server": 2854,
      "ĠImport": 2855,
      "Ġ'/": 2856,
      "icro": 2857,
      "Ġnever": 2858,
      "Ġcombin": 2859,
      "Ġaccuracy": 2860,
      "command": 2861,
      "Ġseparate": 2862,
      "=[": 2863,
      "Co": 2864,
      "Ġcome": 2865,
      "mali": 2866,
      "Ġclassify": 2867,
      "Ġapplications": 2868,
      "Any": 2869,
      "Ġsettings": 2870,
      "Ġinterested": 2871,
      "Ġnetwork": 2872,
      "Up": 2873,
      "Ġlower": 2874,
      "ĠNo": 2875,
      "ager": 2876,
      "ana": 2877,
      "loc": 2878,
      ")))": 2879,
      "Ġcomprehen": 2880,
      "Ġhowever": 2881,
      "matrix": 2882,
      "utils": 2883,
      "fer": 2884,
      "mon": 2885,
      "ĠUsing": 2886,
      "cor": 2887,
      "tot": 2888,
      "writ": 2889,
      "Ġwait": 2890,
      "ĠCal": 2891,
      "ĠSp": 2892,
      "div": 2893,
      "ĠNode": 2894,
      "jangop": 2895,
      "Ġcalcul": 2896,
      "Ġprocessing": 2897,
      "No": 2898,
      "ero": 2899,
      "ural": 2900,
      "ulate": 2901,
      "Ġconnect": 2902,
      "cies": 2903,
      "Ġproblems": 2904,
      "duce": 2905,
      "djangop": 2906,
      "Ġclo": 2907,
      "Ġoperator": 2908,
      "Ġunicode": 2909,
      "Ġwidth": 2910,
      "oun": 2911,
      "havi": 2912,
      "djangoproject": 2913,
      "but": 2914,
      "rate": 2915,
      "Ġlow": 2916,
      "Ġbig": 2917,
      "Ġday": 2918,
      "Ġwhole": 2919,
      "Ġexperience": 2920,
      "second": 2921,
      "Ġbehavi": 2922,
      "owels": 2923,
      "').": 2924,
      "ffect": 2925,
      "Ġmanage": 2926,
      "Ġactual": 2927,
      "Ġiterate": 2928,
      "projects": 2929,
      "encode": 2930,
      "Ġrecur": 2931,
      "names": 2932,
      "ĠNum": 2933,
      "image": 2934,
      "Form": 2935,
      "Ġmade": 2936,
      "Ġadded": 2937,
      "Ġencode": 2938,
      "02": 2939,
      "ah": 2940,
      "ew": 2941,
      "ish": 2942,
      "Ġarea": 2943,
      "Ġ32": 2944,
      "Ġgets": 2945,
      "Ġupd": 2946,
      "Ġlater": 2947,
      "ĠFind": 2948,
      "times": 2949,
      "wise": 2950,
      "alindrome": 2951,
      "Int": 2952,
      "Ġtools": 2953,
      "mode": 2954,
      "Ġguess": 2955,
      "roll": 2956,
      "ization": 2957,
      "ĠččĊ": 2958,
      "Ġlay": 2959,
      "Ġside": 2960,
      "Ġspecial": 2961,
      "haps": 2962,
      "ily": 2963,
      "mage": 2964,
      "sure": 2965,
      "Ġreport": 2966,
      "Ġgeneral": 2967,
      "Un": 2968,
      "game": 2969,
      "Ġfil": 2970,
      "ential": 2971,
      "Ġcost": 2972,
      "__',": 2973,
      "Ġ},": 2974,
      "Ġoperation": 2975,
      "Ġautomatically": 2976,
      "Ġconst": 2977,
      "Ġactiv": 2978,
      "based": 2979,
      "Ġchunks": 2980,
      "Ġerrors": 2981,
      "Ġanswers": 2982,
      "Ġdecimal": 2983,
      "Âł": 2984,
      "ĠLo": 2985,
      "tribute": 2986,
      "Size": 2987,
      "Ġwrong": 2988,
      "EDIT": 2989,
      "Ġtabs": 2990,
      "Or": 2991,
      "{}": 2992,
      "Ġcond": 2993,
      "ĠSet": 2994,
      "Ġwanted": 2995,
      "unctuation": 2996,
      "(*": 2997,
      "io": 2998,
      "ĠClass": 2999,
      "Ġmap": 3000,
      "escape": 3001,
      "84": 3002,
      "LO": 3003,
      "ured": 3004,
      "Ġtuples": 3005,
      "ats": 3006,
      "imize": 3007,
      "last": 3008,
      ":]": 3009,
      "ont": 3010,
      "mem": 3011,
      "Ġdefinit": 3012,
      "cesses": 3013,
      "ĠDoes": 3014,
      "Now": 3015,
      "try": 3016,
      "tree": 3017,
      "ouse": 3018,
      "ĠRuby": 3019,
      "Ġpresent": 3020,
      "status": 3021,
      "pped": 3022,
      "Ġmeans": 3023,
      "ĠMac": 3024,
      "Ġcurr": 3025,
      "Ġcontents": 3026,
      "CharField": 3027,
      "39": 3028,
      "mar": 3029,
      "off": 3030,
      "Ġok": 3031,
      "Ġprojects": 3032,
      "reg": 3033,
      "Ġrece": 3034,
      "Ġduplic": 3035,
      "chan": 3036,
      "Ġ16": 3037,
      "Ġprevious": 3038,
      "Ġwidget": 3039,
      "Me": 3040,
      "create": 3041,
      "Ġsnipp": 3042,
      "Ġexternal": 3043,
      "ources": 3044,
      "Ġcompare": 3045,
      "Also": 3046,
      "Ġstdout": 3047,
      "ION": 3048,
      "men": 3049,
      "sa": 3050,
      "Ġfrequency": 3051,
      "Ġmonth": 3052,
      "Ġop": 3053,
      "med": 3054,
      "ĠDec": 3055,
      "derr": 3056,
      "Ġcomment": 3057,
      ">?</": 3058,
      "Fore": 3059,
      "ially": 3060,
      "ster": 3061,
      "Ġbegin": 3062,
      "tered": 3063,
      "Ġcompar": 3064,
      "Ġacross": 3065,
      "Ġfigure": 3066,
      "Foo": 3067,
      "]*": 3068,
      "Ġreturned": 3069,
      "ĠAs": 3070,
      "ĠOpen": 3071,
      "plain": 3072,
      "requent": 3073,
      "gression": 3074,
      "59": 3075,
      "Ġfail": 3076,
      "Ġcounter": 3077,
      "Ġassert": 3078,
      "ĠFoo": 3079,
      "Ġweight": 3080,
      "show": 3081,
      "Ġequal": 3082,
      "Ġplayer": 3083,
      "ategory": 3084,
      "Ġextension": 3085,
      "EX": 3086,
      "uild": 3087,
      "ĠAr": 3088,
      "graph": 3089,
      "Ġbox": 3090,
      "Ġexecutable": 3091,
      ".*": 3092,
      "Ġcontin": 3093,
      "Ġtermin": 3094,
      "ĠPerl": 3095,
      "width": 3096,
      "Ġnecessary": 3097,
      "ell": 3098,
      "reen": 3099,
      "Ġkeyword": 3100,
      "mbed": 3101,
      "Ġlocation": 3102,
      "apple": 3103,
      "action": 3104,
      "Ġ):": 3105,
      "Ġcli": 3106,
      "utions": 3107,
      "Ġyet": 3108,
      "Ġ%}": 3109,
      "Ġcommands": 3110,
      "Ġdirectly": 3111,
      "php": 3112,
      "Ġprovides": 3113,
      ">)": 3114,
      "Object": 3115,
      "]</": 3116,
      "filter": 3117,
      "mary": 3118,
      "ĠZ": 3119,
      "Ġfla": 3120,
      "limit": 3121,
      "Ġremo": 3122,
      "Ġhig": 3123,
      "Ġparam": 3124,
      "Ġthreads": 3125,
      "sequence": 3126,
      "ĠInit": 3127,
      "Ġideas": 3128,
      "Parser": 3129,
      "57": 3130,
      "From": 3131,
      "qr": 3132,
      "rote": 3133,
      "uring": 3134,
      "ffer": 3135,
      "common": 3136,
      "ĠDef": 3137,
      "Ġdidn": 3138,
      ";=": 3139,
      "cending": 3140,
      "Ġtf": 3141,
      "Ġclear": 3142,
      "anguage": 3143,
      "Ġcolor": 3144,
      "Ġ>=": 3145,
      "Ġdigits": 3146,
      "\"&": 3147,
      "fort": 3148,
      "send": 3149,
      "Ġfunc": 3150,
      "cks": 3151,
      "ĠApache": 3152,
      "Ġmyself": 3153,
      "alize": 3154,
      "Ġdescription": 3155,
      "Ġ2008": 3156,
      "=(": 3157,
      "sleep": 3158,
      "Ġ\"%": 3159,
      "ĠThat": 3160,
      "ĠSome": 3161,
      "ĠAt": 3162,
      "Ġbutton": 3163,
      "program": 3164,
      "ĠUse": 3165,
      "Ġchoice": 3166,
      "::": 3167,
      "TH": 3168,
      "Ġtask": 3169,
      "ĠUser": 3170,
      "build": 3171,
      "21": 3172,
      "Bar": 3173,
      "files": 3174,
      "document": 3175,
      "Ġusername": 3176,
      "Ġtech": 3177,
      "!/": 3178,
      "kit": 3179,
      "Ġtrue": 3180,
      "Ġtasks": 3181,
      "Ġthrow": 3182,
      "atever": 3183,
      "idx": 3184,
      "Ġencoding": 3185,
      "IG": 3186,
      "NA": 3187,
      "Ġpur": 3188,
      "ĠĠĠĠĠĠĠĠĠĠĠĠĠĠ": 3189,
      "Ġmaking": 3190,
      "unicode": 3191,
      "ailed": 3192,
      "tmp": 3193,
      "Ġcmd": 3194,
      "Ġheight": 3195,
      "pos": 3196,
      "shape": 3197,
      "Ġscreen": 3198,
      "views": 3199,
      "Ġsuggestions": 3200,
      "fix": 3201,
      "Ġincre": 3202,
      "Ġbs": 3203,
      "Ġ'.": 3204,
      "Ġalph": 3205,
      "Ġruns": 3206,
      "Ġmulti": 3207,
      "Ġchanged": 3208,
      "Ġlargest": 3209,
      "Ġbrowser": 3210,
      "87": 3211,
      "target": 3212,
      "Ġaction": 3213,
      "stamp": 3214,
      "Ġbot": 3215,
      "':'": 3216,
      "Ġlinear": 3217,
      "ĠException": 3218,
      "LECT": 3219,
      "Ġexpected": 3220,
      "gen": 3221,
      "gant": 3222,
      "lections": 3223,
      "Ġconsole": 3224,
      "ĠUnicode": 3225,
      "Ġque": 3226,
      "pendent": 3227,
      "Ġstarted": 3228,
      "Ġdetails": 3229,
      "wsgi": 3230,
      "40": 3231,
      "SER": 3232,
      "pse": 3233,
      "pip": 3234,
      "help": 3235,
      "Ġsoftware": 3236,
      "ooks": 3237,
      "layers": 3238,
      "elements": 3239,
      "-%": 3240,
      "pattern": 3241,
      "ascript": 3242,
      "ride": 3243,
      "isted": 3244,
      "Ġvarious": 3245,
      "Ġspecified": 3246,
      "Ġmaybe": 3247,
      "Not": 3248,
      "client": 3249,
      "ipe": 3250,
      "year": 3251,
      "ern": 3252,
      "Ġcame": 3253,
      "ĠImplement": 3254,
      "Ġextra": 3255,
      "Ġvar": 3256,
      "Ġcons": 3257,
      "ours": 3258,
      "Ġsets": 3259,
      "fully": 3260,
      "Ġspecify": 3261,
      "Ġdescri": 3262,
      "Ġentire": 3263,
      "Ġdecorator": 3264,
      "Ġobj": 3265,
      "stdin": 3266,
      "Ġproperty": 3267,
      "Ġmerged": 3268,
      "ĠAlso": 3269,
      "54": 3270,
      "lopen": 3271,
      "Ġgives": 3272,
      "Ġmove": 3273,
      "ĠFunction": 3274,
      "ĠName": 3275,
      "avascript": 3276,
      "objects": 3277,
      "IME": 3278,
      "order": 3279,
      "Ġwrote": 3280,
      "ited": 3281,
      "Ġassign": 3282,
      "ories": 3283,
      "used": 3284,
      "gative": 3285,
      "})": 3286,
      "ĠOpt": 3287,
      "weight": 3288,
      "Ġpermutations": 3289,
      "36": 3290,
      "ng": 3291,
      "alle": 3292,
      "expect": 3293,
      "Cont": 3294,
      "On": 3295,
      "Ġ..": 3296,
      "alf": 3297,
      "Ġsuper": 3298,
      "Ġ{\"": 3299,
      "ciated": 3300,
      "Ġchecking": 3301,
      "clude": 3302,
      "ROM": 3303,
      "Ġslow": 3304,
      "Ġyear": 3305,
      "exit": 3306,
      "Ġusage": 3307,
      "resh": 3308,
      "Ġadvant": 3309,
      "features": 3310,
      "Ġengine": 3311,
      "loads": 3312,
      "Ġlinked": 3313,
      "erate": 3314,
      "Ġrever": 3315,
      "ĠMake": 3316,
      "Ġspeed": 3317,
      "address": 3318,
      "Ġthinking": 3319,
      "install": 3320,
      "Ġattach": 3321,
      "static": 3322,
      "uture": 3323,
      "Ġ'\\": 3324,
      "Ġstatus": 3325,
      "Ġcomes": 3326,
      "sets": 3327,
      "Regression": 3328,
      "itertools": 3329,
      "Ġtags": 3330,
      "Ġsaid": 3331,
      "randint": 3332,
      "ĠSplit": 3333,
      "IM": 3334,
      "IP": 3335,
      "sg": 3336,
      "Ġsession": 3337,
      "Ġrest": 3338,
      "exist": 3339,
      "ĠType": 3340,
      "Ġround": 3341,
      "dius": 3342,
      "ĠOn": 3343,
      "Ġmatches": 3344,
      "Ġcreates": 3345,
      "Ġlabels": 3346,
      "Base": 3347,
      "qual": 3348,
      "Ġrule": 3349,
      "ĠLine": 3350,
      "Ġcompute": 3351,
      "ighb": 3352,
      ">/": 3353,
      "platform": 3354,
      "sis": 3355,
      "gether": 3356,
      "essage": 3357,
      "Ġstored": 3358,
      "Get": 3359,
      "That": 3360,
      "Ġmed": 3361,
      "Ġbad": 3362,
      "andid": 3363,
      "ector": 3364,
      "Ġ50": 3365,
      "08": 3366,
      "lates": 3367,
      "route": 3368,
      "tk": 3369,
      "window": 3370,
      "ĠÃ¢": 3371,
      "ensor": 3372,
      "Ġanaly": 3373,
      "Ġdeal": 3374,
      "respon": 3375,
      "ĠValue": 3376,
      "################################": 3377,
      "ES": 3378,
      "PATH": 3379,
      "Using": 3380,
      "cmd": 3381,
      "lot": 3382,
      "Ġemploy": 3383,
      "09": 3384,
      "At": 3385,
      "blog": 3386,
      "Ġ13": 3387,
      "Ġmode": 3388,
      "tom": 3389,
      "ĠDriver": 3390,
      "Ġrelative": 3391,
      "Ġcomments": 3392,
      "Ġadding": 3393,
      "Ġstarting": 3394,
      "job": 3395,
      "username": 3396,
      "Ġstatements": 3397,
      "ploy": 3398,
      "Ġelegant": 3399,
      "By": 3400,
      "Django": 3401,
      "Ġfore": 3402,
      "Ġpublic": 3403,
      "lis": 3404,
      "Ġminimum": 3405,
      "Ġcomputer": 3406,
      "/#": 3407,
      "you": 3408,
      "Ġla": 3409,
      "ĠData": 3410,
      "ĠFROM": 3411,
      "Ġclassifier": 3412,
      "Ġkeras": 3413,
      "Ġbuilding": 3414,
      "56": 3415,
      "OU": 3416,
      "Then": 3417,
      "mid": 3418,
      "px": 3419,
      "Ġ14": 3420,
      "Ġ-=": 3421,
      "chars": 3422,
      "Ġconfiguration": 3423,
      "valuate": 3424,
      "Ġalternative": 3425,
      "Ġsnippet": 3426,
      "EST": 3427,
      "Of": 3428,
      "Ġach": 3429,
      "sider": 3430,
      "Ġitertools": 3431,
      "VER": 3432,
      "Ġpick": 3433,
      "Ġbook": 3434,
      "Ġmessages": 3435,
      "options": 3436,
      "!\")": 3437,
      "Id": 3438,
      "onent": 3439,
      "debug": 3440,
      "Ġfibonacci": 3441,
      "ank": 3442,
      "Ġrelease": 3443,
      "Ġupper": 3444,
      "Ġimportant": 3445,
      "ĠAdd": 3446,
      "Ġpackages": 3447,
      "Number": 3448,
      "Ġpredictions": 3449,
      "II": 3450,
      "Per": 3451,
      "even": 3452,
      "pg": 3453,
      "Ġcache": 3454,
      "Ġcross": 3455,
      "Ġcompile": 3456,
      "Ġparts": 3457,
      "PIPE": 3458,
      "Ġincluding": 3459,
      "Ġcustomer": 3460,
      "Ġunittest": 3461,
      "two": 3462,
      "Ġfit": 3463,
      "ites": 3464,
      "Ġ\"<": 3465,
      "Ġ-&": 3466,
      "ivity": 3467,
      "Ġstudent": 3468,
      "ĠEngine": 3469,
      "Ġretrieve": 3470,
      "Ġpower": 3471,
      "Ġletters": 3472,
      "Ġpositive": 3473,
      "icrosoft": 3474,
      ":%": 3475,
      "Ġpair": 3476,
      "engine": 3477,
      "Ġret": 3478,
      "ĠĠĠĠĠĠĠĠĠĠĠĠĠ": 3479,
      "Ġarch": 3480,
      "socket": 3481,
      "Ġtwe": 3482,
      "ditions": 3483,
      "Ġappropri": 3484,
      "lugin": 3485,
      "display": 3486,
      "Popen": 3487,
      "Use": 3488,
      "cing": 3489,
      "oc": 3490,
      "sample": 3491,
      "tion": 3492,
      "insert": 3493,
      "Ġapache": 3494,
      "Ġoften": 3495,
      "unit": 3496,
      "ĠAd": 3497,
      "Ġsuccess": 3498,
      "angle": 3499,
      "Ġmodified": 3500,
      "column": 3501,
      "HTTP": 3502,
      "cast": 3503,
      "grid": 3504,
      "rel": 3505,
      "Ġsense": 3506,
      "Ġremote": 3507,
      "pred": 3508,
      "Ġrelated": 3509,
      "domain": 3510,
      "Inst": 3511,
      "Ġachie": 3512,
      "One": 3513,
      "folder": 3514,
      "imple": 3515,
      "Ġodd": 3516,
      "ister": 3517,
      "ators": 3518,
      "umps": 3519,
      "ĠConstruct": 3520,
      "Result": 3521,
      ".\")": 3522,
      ".\"\"\"": 3523,
      "ystem": 3524,
      "comple": 3525,
      "Ġ\"/": 3526,
      "Ġversions": 3527,
      "Ġothers": 3528,
      "Ġsubstring": 3529,
      ".,": 3530,
      "FF": 3531,
      "lang": 3532,
      "parent": 3533,
      "remove": 3534,
      "lice": 3535,
      "unately": 3536,
      "Ġcoding": 3537,
      "Ġprocesses": 3538,
      "Ġusually": 3539,
      "ĠWS": 3540,
      "resses": 3541,
      "Ġattr": 3542,
      "veloper": 3543,
      "Ġ''.": 3544,
      "something": 3545,
      "spec": 3546,
      "ĠwxPython": 3547,
      "(\\": 3548,
      ":-": 3549,
      "save": 3550,
      "uss": 3551,
      "zone": 3552,
      "section": 3553,
      "Ġbatch": 3554,
      "alary": 3555,
      "Ġ')": 3556,
      "ariable": 3557,
      "pose": 3558,
      "Ġindic": 3559,
      "cd": 3560,
      "Ġaware": 3561,
      "Ġdays": 3562,
      "Ġforms": 3563,
      "assert": 3564,
      "Ġapps": 3565,
      "simple": 3566,
      "classmethod": 3567,
      "Ġmanip": 3568,
      "clipse": 3569,
      "ground": 3570,
      "Ġactivation": 3571,
      "HE": 3572,
      "Ob": 3573,
      "]+": 3574,
      "baz": 3575,
      "cache": 3576,
      "ua": 3577,
      "Ġsrc": 3578,
      "Ġinfo": 3579,
      "iff": 3580,
      "herry": 3581,
      "Ġencrypt": 3582,
      "Ġaccount": 3583,
      "Ġsolutions": 3584,
      "Ġproperties": 3585,
      "\".</": 3586,
      "Qu": 3587,
      "upper": 3588,
      "ĠâĢ": 3589,
      "ness": 3590,
      "pl": 3591,
      "vices": 3592,
      "ins": 3593,
      "select": 3594,
      "Ġstri": 3595,
      "Ġmail": 3596,
      "Ġchoo": 3597,
      "Ġbyte": 3598,
      "AN": 3599,
      "Ġip": 3600,
      "entially": 3601,
      "ĠCode": 3602,
      "Ġloc": 3603,
      "diction": 3604,
      "ĠGiven": 3605,
      "Ġimplemented": 3606,
      "Ġtyp": 3607,
      "Ġmentioned": 3608,
      "'</": 3609,
      ")?": 3610,
      "bed": 3611,
      "vers": 3612,
      "Ġcondition": 3613,
      "Ġimports": 3614,
      "Ġmaint": 3615,
      "Ġworked": 3616,
      "Ġquestions": 3617,
      "Ġexecution": 3618,
      "Ġoperations": 3619,
      "fortunately": 3620,
      "With": 3621,
      "your": 3622,
      "zz": 3623,
      "Ġtogether": 3624,
      "Ġembed": 3625,
      "Ġlove": 3626,
      "diom": 3627,
      "Ġenumerate": 3628,
      "44": 3629,
      "Path": 3630,
      "cut": 3631,
      "gu": 3632,
      "ls": 3633,
      "ining": 3634,
      "header": 3635,
      "Ġsav": 3636,
      "eries": 3637,
      "Ġfam": 3638,
      "Ġsmtp": 3639,
      "Ġproduction": 3640,
      "Ġappropriate": 3641,
      "ools": 3642,
      "ude": 3643,
      "Ġfree": 3644,
      "Ġbunch": 3645,
      "utf": 3646,
      "ĠConvert": 3647,
      "Su": 3648,
      "fetch": 3649,
      "tuple": 3650,
      "Ġexplain": 3651,
      "Ġproperly": 3652,
      "qrt": 3653,
      "Ġqueue": 3654,
      "Ġremain": 3655,
      "Ġdeploy": 3656,
      "Ġ17": 3657,
      "cls": 3658,
      "Ġraw": 3659,
      "Ġprovided": 3660,
      "================": 3661,
      "05": 3662,
      "Len": 3663,
      "keras": 3664,
      "counter": 3665,
      "Ġfails": 3666,
      "Ġflask": 3667,
      "Ġdest": 3668,
      "Ġtimeout": 3669,
      "ĠOne": 3670,
      "color": 3671,
      "Ġexplicit": 3672,
      "Ġdynamic": 3673,
      "Ġreversed": 3674,
      "AM": 3675,
      "Case": 3676,
      "ause": 3677,
      "Ġinde": 3678,
      "Ġcir": 3679,
      "ĠIter": 3680,
      "Ġvs": 3681,
      "eta": 3682,
      "Ġappear": 3683,
      "Ġcompil": 3684,
      "Ġnothing": 3685,
      "solute": 3686,
      ";\",": 3687,
      "freq": 3688,
      "Ġpract": 3689,
      "Ġnest": 3690,
      "ĠTk": 3691,
      "Ġentry": 3692,
      "ĠExample": 3693,
      "Ġrequires": 3694,
      "Ġauthentic": 3695,
      "ĠCalculate": 3696,
      "SO": 3697,
      "ended": 3698,
      "Ġcare": 3699,
      "anana": 3700,
      "loop": 3701,
      "idden": 3702,
      "penden": 3703,
      "Example": 3704,
      "SELECT": 3705,
      "Ġcolumns": 3706,
      "transform": 3707,
      ")-": 3708,
      "42": 3709,
      "lons": 3710,
      "Ãİ": 3711,
      "Ġpipe": 3712,
      "ĠIDE": 3713,
      "itude": 3714,
      "Ġeffect": 3715,
      "ison": 3716,
      "Ġdeci": 3717,
      "Ġdocs": 3718,
      "users": 3719,
      "Ġgenerated": 3720,
      "ĠCont": 3721,
      "template": 3722,
      "can": 3723,
      "np": 3724,
      "src": 3725,
      "scores": 3726,
      "wait": 3727,
      "Ġmsg": 3728,
      "Ġbytes": 3729,
      "chema": 3730,
      "Ġcorrectly": 3731,
      "total": 3732,
      ")+": 3733,
      "mer": 3734,
      "mark": 3735,
      "zer": 3736,
      "Ġap": 3737,
      "magine": 3738,
      "Ġpast": 3739,
      "ĠBuild": 3740,
      "Ġsupports": 3741,
      "Ġeditor": 3742,
      "Ġbehavior": 3743,
      "Mat": 3744,
      "err": 3745,
      "Ġidiom": 3746,
      "Ġdp": 3747,
      "urlopen": 3748,
      "Ġ\"__": 3749,
      "extend": 3750,
      "sius": 3751,
      "ĠWhich": 3752,
      "Update": 3753,
      "ĠDefine": 3754,
      "clean": 3755,
      "style": 3756,
      "Ġfinal": 3757,
      "olve": 3758,
      "irt": 3759,
      "Ġrespon": 3760,
      "Classifier": 3761,
      "plotlib": 3762,
      "digits": 3763,
      "(__": 3764,
      ")/": 3765,
      "Com": 3766,
      "ds": 3767,
      "ĠĠĠčĊ": 3768,
      "Ġ[(": 3769,
      "Ġwhatever": 3770,
      "ipes": 3771,
      "Ġseries": 3772,
      "Ġemails": 3773,
      "Ġplain": 3774,
      "SCII": 3775,
      "1000": 3776,
      ":',": 3777,
      "regex": 3778,
      "stems": 3779,
      "Ġplan": 3780,
      "Ġbound": 3781,
      "umb": 3782,
      "Ġvowels": 3783,
      "pep": 3784,
      "Ġacc": 3785,
      "ignKey": 3786,
      "Ġpassing": 3787,
      "localhost": 3788,
      "ĠInitialize": 3789,
      "Run": 3790,
      "osed": 3791,
      "Ġmovie": 3792,
      "ĠDB": 3793,
      "ĠModel": 3794,
      "Ġshared": 3795,
      "ndar": 3796,
      "ĠĠĠĠĠĠĠĠĠĠĠĠĠĠĠĠĠĠĠĠĠĠĠĠĠĠĠ": 3797,
      "ĠUT": 3798,
      "Ġtrick": 3799,
      "Ġĉĉĉ": 3800,
      "Ġnormal": 3801,
      "Dense": 3802,
      "Frame": 3803,
      "Gener": 3804,
      "PC": 3805,
      "YTH": 3806,
      "gno": 3807,
      "Ġinher": 3808,
      "Ġdouble": 3809,
      "mean": 3810,
      "points": 3811,
      "Ġagainst": 3812,
      "Ġimpro": 3813,
      "YTHON": 3814,
      "66": 3815,
      "nor": 3816,
      "uid": 3817,
      "Ġ?</": 3818,
      "Ġpix": 3819,
      "ansp": 3820,
      "alance": 3821,
      "location": 3822,
      "cially": 3823,
      "31": 3824,
      "Pri": 3825,
      "custom": 3826,
      "long": 3827,
      "hes": 3828,
      "ording": 3829,
      "Ġinteractive": 3830,
      "ĠTraceback": 3831,
      "Ġsquare": 3832,
      ">$": 3833,
      "GET": 3834,
      "Message": 3835,
      "Str": 3836,
      "TK": 3837,
      "language": 3838,
      "png": 3839,
      "Ġq": 3840,
      "Ġplease": 3841,
      "Ġclf": 3842,
      "Ġctypes": 3843,
      "ane": 3844,
      "change": 3845,
      "Ġstream": 3846,
      "Ġsymb": 3847,
      "Ġlogger": 3848,
      "NAME": 3849,
      ".')": 3850,
      "?)": 3851,
      "Sh": 3852,
      "brow": 3853,
      "Ġdraw": 3854,
      "Ġnative": 3855,
      "look": 3856,
      "Ġyears": 3857,
      "__\":": 3858,
      "conf": 3859,
      "\").": 3860,
      "ĠRead": 3861,
      "Ġrepresentation": 3862,
      "NU": 3863,
      "frame": 3864,
      "ug": 3865,
      "Ġauthor": 3866,
      "erature": 3867,
      "Ġcell": 3868,
      "alog": 3869,
      "__)": 3870,
      "ĠSh": 3871,
      "ĠAre": 3872,
      "ĠLog": 3873,
      "Ġrender": 3874,
      "(-": 3875,
      "month": 3876,
      "Ġimages": 3877,
      "enu": 3878,
      "Ġlinux": 3879,
      "readline": 3880,
      "Ġadditional": 3881,
      "Lib": 3882,
      "pace": 3883,
      "Ġax": 3884,
      "abet": 3885,
      "Ġcompiled": 3886,
      "clas": 3887,
      "Ġlogin": 3888,
      "login": 3889,
      "Ġcorrespon": 3890,
      ".)": 3891,
      "User": 3892,
      "Ġsur": 3893,
      "Ġfetch": 3894,
      "Ġpie": 3895,
      "Ġcsv": 3896,
      "ĠSee": 3897,
      "Ġpythonic": 3898,
      "Ġ{%": 3899,
      "Ġscripting": 3900,
      "Ġaccomp": 3901,
      "ibility": 3902,
      "Ġeasiest": 3903,
      "[:,": 3904,
      "Ġframeworks": 3905,
      "Admin": 3906,
      "ĠValueError": 3907,
      ";\"": 3908,
      ">@": 3909,
      "XML": 3910,
      "walk": 3911,
      "Ġfair": 3912,
      "lied": 3913,
      "Ġeg": 3914,
      "quential": 3915,
      "Ġpromp": 3916,
      "Ġlaz": 3917,
      "icult": 3918,
      "Ġconsider": 3919,
      "Ġprograms": 3920,
      "Alchemy": 3921,
      "Ġcls": 3922,
      "Ġoptimize": 3923,
      "Ġcomprehension": 3924,
      "(?": 3925,
      "23": 3926,
      "Date": 3927,
      "IST": 3928,
      "POST": 3929,
      "UP": 3930,
      "ock": 3931,
      "sm": 3932,
      "udent": 3933,
      "store": 3934,
      "Ġ=&": 3935,
      "ĠThen": 3936,
      "pensive": 3937,
      "Ġ/></": 3938,
      "Ġsubclass": 3939,
      "HTML": 3940,
      "Ġindentation": 3941,
      "Ġmedian": 3942,
      "Col": 3943,
      "that": 3944,
      "Ġ'-": 3945,
      "ordin": 3946,
      "make": 3947,
      "artic": 3948,
      "Ġinstances": 3949,
      "Ġcollections": 3950,
      "Ġdigit": 3951,
      "Ġmaintain": 3952,
      "\"],": 3953,
      "OS": 3954,
      "faces": 3955,
      "ious": 3956,
      "sers": 3957,
      "Ġapi": 3958,
      "dered": 3959,
      "arning": 3960,
      "Ġassu": 3961,
      "lade": 3962,
      "span": 3963,
      "Ġgenerates": 3964,
      "tokenize": 3965,
      "Ġappre": 3966,
      ",</": 3967,
      "multip": 3968,
      "cope": 3969,
      "ries": 3970,
      "istic": 3971,
      "property": 3972,
      "Ġpaths": 3973,
      "argument": 3974,
      "Ġgraph": 3975,
      "svn": 3976,
      "ounter": 3977,
      "74": 3978,
      "Check": 3979,
      "EN": 3980,
      "fect": 3981,
      "rans": 3982,
      "{{": 3983,
      "Ġconditions": 3984,
      "Ġnote": 3985,
      "Ġappears": 3986,
      "poch": 3987,
      "Ġdisc": 3988,
      "alized": 3989,
      "Ġhappens": 3990,
      "Ġquotes": 3991,
      "agram": 3992,
      "ilit": 3993,
      "ys": 3994,
      "Ġisinstance": 3995,
      "Ġbeh": 3996,
      "icense": 3997,
      "msg": 3998,
      "Are": 3999,
      "bl": 4000,
      "hi": 4001,
      "ibrary": 4002,
      "hest": 4003,
      "Ġrepe": 4004,
      "Ġ[],": 4005,
      "peps": 4006,
      "ived": 4007,
      "delta": 4008,
      "more": 4009,
      "ĠImportError": 4010,
      "Ġachieve": 4011,
      ",\"": 4012,
      "FI": 4013,
      "mand": 4014,
      "lists": 4015,
      "Ġcounts": 4016,
      "9999": 4017,
      "Ġgreater": 4018,
      "unique": 4019,
      "just": 4020,
      "Ġcent": 4021,
      "ĠCount": 4022,
      "Ġ28": 4023,
      "123": 4024,
      "Ġenter": 4025,
      "Ġtraining": 4026,
      "Ġjsonify": 4027,
      "Ġdefinition": 4028,
      "Ġcontinue": 4029,
      "All": 4030,
      "OL": 4031,
      "height": 4032,
      "Ġperhaps": 4033,
      "Ġmatter": 4034,
      "1234": 4035,
      "Ġquickly": 4036,
      "Ġrecords": 4037,
      "Ġdifficult": 4038,
      "Let": 4039,
      "lar": 4040,
      "tect": 4041,
      "Ġpages": 4042,
      "Ġinner": 4043,
      "lying": 4044,
      "Ġcore": 4045,
      "Ġ18": 4046,
      "();": 4047,
      "Ġ21": 4048,
      "access": 4049,
      "ĠRun": 4050,
      "findall": 4051,
      "lank": 4052,
      "Ġproduce": 4053,
      "ĠLoad": 4054,
      "ĠIterate": 4055,
      "Windows": 4056,
      "ares": 4057,
      "ktop": 4058,
      "heit": 4059,
      "Ġfreq": 4060,
      "selection": 4061,
      "Ġmon": 4062,
      "Ġconcat": 4063,
      "renheit": 4064,
      "ahrenheit": 4065,
      "member": 4066,
      "andidates": 4067,
      "DF": 4068,
      "Log": 4069,
      "Please": 4070,
      "URL": 4071,
      "ume": 4072,
      "ged": 4073,
      "\"),": 4074,
      "forms": 4075,
      "Ġarrays": 4076,
      "Ġ}}": 4077,
      "charact": 4078,
      "Ġinstallation": 4079,
      "Ġheaders": 4080,
      "Val": 4081,
      "hash": 4082,
      "atural": 4083,
      "Ġrefe": 4084,
      "ĠSu": 4085,
      "ĠAll": 4086,
      "ants": 4087,
      "ivot": 4088,
      "ips": 4089,
      "Ġattemp": 4090,
      "Ġaddresses": 4091,
      "functions": 4092,
      "Ġterms": 4093,
      "bitr": 4094,
      "Ġmiddle": 4095,
      "ĠUnix": 4096,
      "itespace": 4097,
      "\"])": 4098,
      "98": 4099,
      "CON": 4100,
      "ele": 4101,
      "oint": 4102,
      "rs": 4103,
      "reverse": 4104,
      "only": 4105,
      "Ġsql": 4106,
      "cost": 4107,
      "vide": 4108,
      "Ġdisk": 4109,
      "255": 4110,
      "Ġimg": 4111,
      "Ġsimpler": 4112,
      "Ġstock": 4113,
      "Ġsignal": 4114,
      "Ġnormali": 4115,
      "Ġtokens": 4116,
      "Ġrecursive": 4117,
      "ĠLinear": 4118,
      "ilities": 4119,
      "Max": 4120,
      "duplic": 4121,
      "patch": 4122,
      "rp": 4123,
      "cogn": 4124,
      "Ġfuture": 4125,
      "Ġcv": 4126,
      "Ġsystems": 4127,
      "Ġchecks": 4128,
      "Ġbuffer": 4129,
      "Ġintern": 4130,
      "Ġsupported": 4131,
      "Ġauto": 4132,
      "'\\": 4133,
      ")[": 4134,
      "38": 4135,
      "95": 4136,
      "GL": 4137,
      "author": 4138,
      "dom": 4139,
      "edit": 4140,
      "Ġalthough": 4141,
      "ĠOR": 4142,
      "Ġcallable": 4143,
      "Ġlogic": 4144,
      "Ġfixed": 4145,
      "ĠWeb": 4146,
      "Dec": 4147,
      "Man": 4148,
      "Tra": 4149,
      "ered": 4150,
      "eger": 4151,
      "Ġtre": 4152,
      "Ġfrequent": 4153,
      "ĠImage": 4154,
      "espe": 4155,
      "stru": 4156,
      "tool": 4157,
      "Ġcommun": 4158,
      "Ġprev": 4159,
      "Ġmatplotlib": 4160,
      "ression": 4161,
      "Ġdocuments": 4162,
      "creen": 4163,
      "Ġprefix": 4164,
      "Ġhttps": 4165,
      "Ġbrown": 4166,
      "(['": 4167,
      "US": 4168,
      "Ġinspect": 4169,
      "roid": 4170,
      "Ġ\".": 4171,
      "Ġnegative": 4172,
      "ĠWord": 4173,
      "Ġarbitr": 4174,
      "('\\": 4175,
      "alling": 4176,
      "Ġpos": 4177,
      "Ġsimplest": 4178,
      "Request": 4179,
      "Ġdeveloping": 4180,
      "arently": 4181,
      "ronPython": 4182,
      "ĠProgram": 4183,
      "ĠKey": 4184,
      "unittest": 4185,
      "HER": 4186,
      "ech": 4187,
      "ier": 4188,
      "met": 4189,
      "Ġdecode": 4190,
      "------": 4191,
      "ĠBase": 4192,
      "Ġlooked": 4193,
      "Ġbasically": 4194,
      "Ġlazy": 4195,
      "Sub": 4196,
      "fil": 4197,
      "she": 4198,
      "squ": 4199,
      "world": 4200,
      "Ġfailed": 4201,
      "Ġconside": 4202,
      "ĠLicense": 4203,
      "Ġhandler": 4204,
      "Ġzero": 4205,
      "bytes": 4206,
      "correct": 4207,
      "DO": 4208,
      "EM": 4209,
      "Node": 4210,
      "dn": 4211,
      "Ġtutorial": 4212,
      "aspx": 4213,
      "Ġcouple": 4214,
      "termin": 4215,
      "pythonic": 4216,
      "'].": 4217,
      "Ġ%(": 4218,
      "Why": 4219,
      "Ġlayer": 4220,
      "Ġconsist": 4221,
      "Ġcorresponding": 4222,
      "45": 4223,
      "CH": 4224,
      "Lo": 4225,
      "days": 4226,
      "has": 4227,
      "ens": 4228,
      "Ġhope": 4229,
      "Ġdependen": 4230,
      "ĠSort": 4231,
      "Ġlead": 4232,
      "curity": 4233,
      "Ġfeel": 4234,
      "letters": 4235,
      "classes": 4236,
      "Line": 4237,
      "Sort": 4238,
      "uge": 4239,
      "wra": 4240,
      "Ġmind": 4241,
      "alone": 4242,
      "Ġprotocol": 4243,
      "Ġ23": 4244,
      "ĠServer": 4245,
      "uster": 4246,
      "ĠRes": 4247,
      "trunk": 4248,
      "Ġpygame": 4249,
      "Ġiterator": 4250,
      "Exception": 4251,
      "Array": 4252,
      "Ġchoose": 4253,
      "ASI": 4254,
      "SP": 4255,
      "Vector": 4256,
      "bb": 4257,
      "inite": 4258,
      "Ġsleep": 4259,
      "Ġbits": 4260,
      "Ġredirect": 4261,
      "rive": 4262,
      "lling": 4263,
      "Ġ22": 4264,
      "Ġnumer": 4265,
      "grade": 4266,
      "Ġmechan": 4267,
      "ĠElement": 4268,
      "\":\"": 4269,
      "Ġactive": 4270,
      "Item": 4271,
      "Ġtrouble": 4272,
      "Ġmatching": 4273,
      "ĠThanks": 4274,
      "handle": 4275,
      "Ġidentify": 4276,
      "exists": 4277,
      "Ġrules": 4278,
      "*-": 4279,
      "75": 4280,
      "See": 4281,
      "rd": 4282,
      "vol": 4283,
      "relu": 4284,
      "Ġfill": 4285,
      "Ġbene": 4286,
      "Ġlate": 4287,
      "emon": 4288,
      "ift": 4289,
      "untu": 4290,
      "Ġfeed": 4291,
      "Ġmanually": 4292,
      "iliar": 4293,
      "Property": 4294,
      "ĠQu": 4295,
      "generate": 4296,
      "'''": 4297,
      "Ġflag": 4298,
      "especially": 4299,
      "48": 4300,
      "CC": 4301,
      "Ġplugin": 4302,
      "Ġthird": 4303,
      "uter": 4304,
      "Ġstat": 4305,
      "layer": 4306,
      "player": 4307,
      "256": 4308,
      "Another": 4309,
      "Ġoffset": 4310,
      "Ġphone": 4311,
      "Ġwrapper": 4312,
      "Ġnested": 4313,
      "!'": 4314,
      "cr": 4315,
      "erence": 4316,
      "ann": 4317,
      "urrent": 4318,
      "mac": 4319,
      "Ġ-*-": 4320,
      "....": 4321,
      ")),": 4322,
      "Ġ40": 4323,
      "feature": 4324,
      "Ġfinding": 4325,
      "bose": 4326,
      "commit": 4327,
      "description": 4328,
      "ĠWhy": 4329,
      "49": 4330,
      "ba": 4331,
      "home": 4332,
      "jor": 4333,
      "uck": 4334,
      "release": 4335,
      "Ġcar": 4336,
      "ĠINT": 4337,
      "Ġ\"\\": 4338,
      "Ġ##": 4339,
      "Ġselection": 4340,
      "aybe": 4341,
      "ĠEdit": 4342,
      "Index": 4343,
      "ATE": 4344,
      "ĠJavaScript": 4345,
      "distance": 4346,
      "Button": 4347,
      "lished": 4348,
      "Length": 4349,
      "He": 4350,
      "aive": 4351,
      "bound": 4352,
      "ÃĤ": 4353,
      "Ġbody": 4354,
      "ĠPerson": 4355,
      "urther": 4356,
      "Ġexpensive": 4357,
      "macs": 4358,
      "Ġhex": 4359,
      "Ġlookup": 4360,
      "Ġperfect": 4361,
      "ibly": 4362,
      "Ġtemplates": 4363,
      "lug": 4364,
      "ĠSQLAlchemy": 4365,
      "Ġworth": 4366,
      "Ġencoded": 4367,
      "Ġarbitrary": 4368,
      "65": 4369,
      "AX": 4370,
      "Net": 4371,
      "TE": 4372,
      "sqrt": 4373,
      "Ġhours": 4374,
      "Ġbeli": 4375,
      "Ġlock": 4376,
      "Ġapply": 4377,
      "imer": 4378,
      "ĠEnum": 4379,
      "linear": 4380,
      "Ġprices": 4381,
      "Thread": 4382,
      "ĠNumber": 4383,
      "ĠOptimize": 4384,
      "81": 4385,
      "Module": 4386,
      "UN": 4387,
      "tf": 4388,
      "Ãĥ": 4389,
      "stat": 4390,
      "Ġhalf": 4391,
      "raction": 4392,
      "Ġdog": 4393,
      "Ġalong": 4394,
      "Ġadvice": 4395,
      "alidate": 4396,
      "Ġcomponent": 4397,
      "ecause": 4398,
      "Ġ64": 4399,
      "riter": 4400,
      "Ġwidgets": 4401,
      "Ġterminal": 4402,
      "Ġconcaten": 4403,
      "Sum": 4404,
      "Temp": 4405,
      "pth": 4406,
      "inally": 4407,
      "Ġftp": 4408,
      "Ġtoday": 4409,
      "Ġdt": 4410,
      "ategori": 4411,
      "etc": 4412,
      "elated": 4413,
      "Ġoverhead": 4414,
      "Ġreasons": 4415,
      "ĠTrain": 4416,
      "ForeignKey": 4417,
      "ASIC": 4418,
      ";</": 4419,
      "stop": 4420,
      "Ġbl": 4421,
      "und": 4422,
      "quences": 4423,
      "()[": 4424,
      "ĠSO": 4425,
      "dient": 4426,
      "ĠNote": 4427,
      "ubble": 4428,
      "ĠThey": 4429,
      "Ġgoes": 4430,
      "urllib": 4431,
      "Ġmetri": 4432,
      "Output": 4433,
      "upt": 4434,
      "raint": 4435,
      "Ġimported": 4436,
      "should": 4437,
      "processing": 4438,
      "Ġrai": 4439,
      "00000000": 4440,
      "Ġgenerators": 4441,
      "Ġfairly": 4442,
      "Ġbelieve": 4443,
      "ategories": 4444,
      "97": 4445,
      ":\")": 4446,
      "Act": 4447,
      "Code": 4448,
      "GE": 4449,
      "World": 4450,
      "lxml": 4451,
      "Ġflex": 4452,
      "Ġfox": 4453,
      "Ġpush": 4454,
      "ĠText": 4455,
      "ĠASCII": 4456,
      "dog": 4457,
      "Ġabsolute": 4458,
      "Ġtrack": 4459,
      "Ġarticles": 4460,
      "Ġbindings": 4461,
      "Comp": 4462,
      "Method": 4463,
      "Ġadvantage": 4464,
      "Obj": 4465,
      "Ġprompt": 4466,
      "HERE": 4467,
      "Vectorizer": 4468,
      "IS": 4469,
      "New": 4470,
      "PA": 4471,
      "Tag": 4472,
      "glish": 4473,
      "ki": 4474,
      "longest": 4475,
      "ĠĠĠĠĠĠčĊ": 4476,
      "decode": 4477,
      "Ġanagram": 4478,
      "Ġ\"))": 4479,
      "ils": 4480,
      "Ġotherwise": 4481,
      "ÂĢÂĻ": 4482,
      "TestCase": 4483,
      "generator": 4484,
      "Ġissues": 4485,
      "Ġcapit": 4486,
      "=&": 4487,
      "]])": 4488,
      "go": 4489,
      "handler": 4490,
      "irect": 4491,
      "shell": 4492,
      "aring": 4493,
      "ueue": 4494,
      "Ġ:)</": 4495,
      "while": 4496,
      "Ġproducts": 4497,
      "Ġdebugger": 4498,
      "Ġfiltered": 4499,
      "VC": 4500,
      "XX": 4501,
      "\\.": 4502,
      "ai": 4503,
      "fs": 4504,
      "Ġfun": 4505,
      "ĠIN": 4506,
      "ĠNOT": 4507,
      "contrib": 4508,
      "Ġadv": 4509,
      "ĠEclipse": 4510,
      "ĠUp": 4511,
      "ĠJython": 4512,
      "lash": 4513,
      "dirname": 4514,
      "groups": 4515,
      "Ġgroups": 4516,
      "dictionary": 4517,
      "Ġimprove": 4518,
      "Ġaccomplish": 4519,
      "Be": 4520,
      "Enum": 4521,
      "TER": 4522,
      "non": 4523,
      "Ġsound": 4524,
      "Ġpad": 4525,
      "Ġlic": 4526,
      "pport": 4527,
      "except": 4528,
      "ĠWith": 4529,
      "oolean": 4530,
      "Ġchunk": 4531,
      "ipher": 4532,
      "Ġyourself": 4533,
      "cise": 4534,
      "tings": 4535,
      "queue": 4536,
      "Which": 4537,
      "LOG": 4538,
      "Ġduplicate": 4539,
      "Ġbeginning": 4540,
      ")*": 4541,
      "BO": 4542,
      "GB": 4543,
      "dest": 4544,
      "Ġsn": 4545,
      "Ġpure": 4546,
      "sess": 4547,
      "Ġblog": 4548,
      "ĠInt": 4549,
      "Ġdomain": 4550,
      "Ġunless": 4551,
      "area": 4552,
      "Ġintro": 4553,
      "Ġsmalle": 4554,
      "activestate": 4555,
      "DATE": 4556,
      "ĠTkinter": 4557,
      "Ġsmallest": 4558,
      "+=": 4559,
      "07": 4560,
      "BU": 4561,
      "Related": 4562,
      "fun": 4563,
      "ident": 4564,
      "tz": 4565,
      "yield": 4566,
      "rection": 4567,
      "readed": 4568,
      "Ġbro": 4569,
      "Ġhuge": 4570,
      "Ġ24": 4571,
      "Ġappend": 4572,
      "ressed": 4573,
      "Ġwouldn": 4574,
      "Input": 4575,
      "Ġreads": 4576,
      "Ġhandles": 4577,
      "[::-": 4578,
      "Ġplaces": 4579,
      ">#!/": 4580,
      "Ġupdated": 4581,
      "Ġindependent": 4582,
      "Ġinherit": 4583,
      "Ass": 4584,
      "cum": 4585,
      "js": 4586,
      "mers": 4587,
      "Ġtalk": 4588,
      "levant": 4589,
      "alchemy": 4590,
      "Ġhold": 4591,
      "Ġdevice": 4592,
      "Ġmysql": 4593,
      "context": 4594,
      "addr": 4595,
      "Ġavg": 4596,
      "mission": 4597,
      "Ġhighest": 4598,
      "Ġtechni": 4599,
      "ighbors": 4600,
      "ĠLinearRegression": 4601,
      "Manager": 4602,
      ".<": 4603,
      "API": 4604,
      "Yes": 4605,
      "java": 4606,
      "uzz": 4607,
      "Ġ:</": 4608,
      "Ġrepla": 4609,
      "Ġreduce": 4610,
      "Ġlex": 4611,
      "lace": 4612,
      "elsius": 4613,
      "Ġkwargs": 4614,
      "Ġspecifically": 4615,
      "DATA": 4616,
      "Ġlaunch": 4617,
      "uptools": 4618,
      "06": 4619,
      "Add": 4620,
      "FO": 4621,
      "MO": 4622,
      "Your": 4623,
      "oin": 4624,
      "requi": 4625,
      "orig": 4626,
      "stderr": 4627,
      "seek": 4628,
      "Ġdot": 4629,
      "Ġnatural": 4630,
      "Ġeval": 4631,
      "Ġdel": 4632,
      "Ġsubject": 4633,
      "anti": 4634,
      "Ġmylist": 4635,
      "Ġshutil": 4636,
      "ĠError": 4637,
      "Ġquant": 4638,
      "trac": 4639,
      "Ġcollection": 4640,
      "ifications": 4641,
      "127": 4642,
      "Ġentities": 4643,
      "Ġtables": 4644,
      "Ġlarger": 4645,
      "Ġcustomers": 4646,
      "Ġdepending": 4647,
      "wards": 4648,
      "Ġprediction": 4649,
      "Down": 4650,
      "}')": 4651,
      "uted": 4652,
      "ĠPOST": 4653,
      "Ġstra": 4654,
      "Ġgen": 4655,
      "Ġcook": 4656,
      "ĠCom": 4657,
      "Ġlikely": 4658,
      "else": 4659,
      "ĠLink": 4660,
      "letter": 4661,
      "Ġcapt": 4662,
      "Ġbuiltin": 4663,
      "Ġdivisible": 4664,
      "Ġcomparison": 4665,
      "Ġparams": 4666,
      "Client": 4667,
      "Just": 4668,
      "fc": 4669,
      "ypes": 4670,
      "Ġslight": 4671,
      "Ġscores": 4672,
      "Ġ\"-": 4673,
      "Ġproxy": 4674,
      "exp": 4675,
      "aching": 4676,
      "Ġ80": 4677,
      "Ġfollows": 4678,
      "Ġbackground": 4679,
      "Ġimmedi": 4680,
      "mension": 4681,
      "Ġclick": 4682,
      "ĠWSGI": 4683,
      "Ġpiece": 4684,
      "Ġlatest": 4685,
      ")?</": 4686,
      "Dis": 4687,
      "Given": 4688,
      "MTP": 4689,
      "Read": 4690,
      "bat": 4691,
      "banana": 4692,
      "jpg": 4693,
      "pa": 4694,
      "{\"": 4695,
      "inary": 4696,
      "seq": 4697,
      "Ġref": 4698,
      "Ġstderr": 4699,
      "ĠĠĠĠĠĠĠĠĠĠĠĠčĊ": 4700,
      "Ġgoogle": 4701,
      "accuracy": 4702,
      "cipy": 4703,
      "Ġbug": 4704,
      "Ġdirectories": 4705,
      "sentiment": 4706,
      "Ġlonger": 4707,
      "Ġchanging": 4708,
      "Ġvectorizer": 4709,
      "Ġaccording": 4710,
      "\"):": 4711,
      "Many": 4712,
      "UL": 4713,
      "mt": 4714,
      "microsoft": 4715,
      "ration": 4716,
      "sures": 4717,
      "ination": 4718,
      "delete": 4719,
      "ĠPre": 4720,
      "ĠTw": 4721,
      "Ġmapping": 4722,
      "lah": 4723,
      "trace": 4724,
      "Ġchars": 4725,
      "ificant": 4726,
      "built": 4727,
      "Ġsearching": 4728,
      "ĠStack": 4729,
      "Ġthreading": 4730,
      "Ġblocks": 4731,
      "Ġoptimization": 4732,
      "Ġchoices": 4733,
      "Ġdistribution": 4734,
      "ĠParse": 4735,
      "Ġappreciated": 4736,
      "Word": 4737,
      "[^": 4738,
      "auth": 4739,
      "car": 4740,
      "eval": 4741,
      "mi": 4742,
      "tod": 4743,
      "Ġtensor": 4744,
      "outer": 4745,
      "Ġrev": 4746,
      "Ġdesi": 4747,
      "verting": 4748,
      "abs": 4749,
      "Ġasso": 4750,
      "Ġvirt": 4751,
      "ĠWHERE": 4752,
      "imilar": 4753,
      "Ġgeneric": 4754,
      "Ġoutside": 4755,
      "Ġqueries": 4756,
      "params": 4757,
      "Something": 4758,
      "Ġscrape": 4759,
      "Ġcompletely": 4760,
      "expected": 4761,
      "rpc": 4762,
      "cross": 4763,
      "Ġtail": 4764,
      "Ġimagine": 4765,
      "Ġsection": 4766,
      "Ġasyn": 4767,
      "software": 4768,
      "aging": 4769,
      "vial": 4770,
      "clus": 4771,
      "Ġreadable": 4772,
      "option": 4773,
      "Ġreplacement": 4774,
      "Dev": 4775,
      "Ġinitial": 4776,
      "Ġutility": 4777,
      "programming": 4778,
      "/%": 4779,
      "buntu": 4780,
      "ui": 4781,
      "Ġslower": 4782,
      "orical": 4783,
      "Ġframe": 4784,
      "Ġrecogn": 4785,
      "Ġda": 4786,
      "Ġdrop": 4787,
      "Ġmac": 4788,
      "aclass": 4789,
      "Ġtimestamp": 4790,
      "Ġsubst": 4791,
      "Ġ60": 4792,
      "cret": 4793,
      "ront": 4794,
      "ĠReturns": 4795,
      "recipes": 4796,
      "duplicates": 4797,
      "Ġstraight": 4798,
      "!')": 4799,
      "03": 4800,
      "First": 4801,
      "database": 4802,
      "diff": 4803,
      "ftime": 4804,
      "pec": 4805,
      "perl": 4806,
      "Ġfinds": 4807,
      "Ġprevent": 4808,
      "Ġcreation": 4809,
      "package": 4810,
      "Config": 4811,
      "Ġincluded": 4812,
      "alendar": 4813,
      "products": 4814,
      "download": 4815,
      "Content": 4816,
      "/~": 4817,
      "PU": 4818,
      "cv": 4819,
      "mk": 4820,
      "punctuation": 4821,
      "windows": 4822,
      "Ġ~": 4823,
      "Ġaw": 4824,
      "dec": 4825,
      "lent": 4826,
      "Ġfib": 4827,
      "Ġpalindrome": 4828,
      "Ġ'%": 4829,
      "very": 4830,
      "Ġ500": 4831,
      "Ġoutputs": 4832,
      "pression": 4833,
      "Ġalphabet": 4834,
      "Equal": 4835,
      "RPC": 4836,
      "SL": 4837,
      "Try": 4838,
      "images": 4839,
      "task": 4840,
      "Ġ;": 4841,
      "Ġmar": 4842,
      "riend": 4843,
      "ĠTime": 4844,
      "arily": 4845,
      "Ġruntime": 4846,
      "Ġgenerally": 4847,
      "cap": 4848,
      "3333": 4849,
      "interface": 4850,
      "Ġinitialize": 4851,
      "directory": 4852,
      "position": 4853,
      "Ġexplicitly": 4854,
      ">).": 4855,
      "Ent": 4856,
      "GER": 4857,
      "MS": 4858,
      "\\\"": 4859,
      "lin": 4860,
      "lper": 4861,
      "swith": 4862,
      "Ġespecially": 4863,
      "Ġaudio": 4864,
      "Ġpivot": 4865,
      "ĠIF": 4866,
      "Ġhop": 4867,
      "Ġconcept": 4868,
      "moin": 4869,
      "aste": 4870,
      "Ġcompat": 4871,
      "Ġcouldn": 4872,
      "Ġ:-": 4873,
      "Ġcau": 4874,
      "Ġtransl": 4875,
      "Ġpopulation": 4876,
      "writing": 4877,
      "divid": 4878,
      "ĠTypeError": 4879,
      "96": 4880,
      "clock": 4881,
      "kt": 4882,
      "variable": 4883,
      "Ġscope": 4884,
      "attribute": 4885,
      "Ġpot": 4886,
      "oop": 4887,
      "ĠBy": 4888,
      "defined": 4889,
      "counts": 4890,
      "Ġprimes": 4891,
      "StringIO": 4892,
      "children": 4893,
      "topics": 4894,
      "Ġrecently": 4895,
      "pository": 4896,
      "EXT": 4897,
      "YTHONPATH": 4898,
      "Ġsymbol": 4899,
      "\"}": 4900,
      "94": 4901,
      ">?": 4902,
      "CK": 4903,
      "Label": 4904,
      "af": 4905,
      "clear": 4906,
      "pad": 4907,
      "Ġ],": 4908,
      "Ġaway": 4909,
      "Ġepoch": 4910,
      "Ġ\"+": 4911,
      "ptime": 4912,
      "refore": 4913,
      "Ġsuit": 4914,
      "oog": 4915,
      "Ġanyway": 4916,
      "ĠLet": 4917,
      "Ġhello": 4918,
      "shot": 4919,
      "Ġtaking": 4920,
      "Ġfactors": 4921,
      "Ġexecuted": 4922,
      "tags": 4923,
      "Ġcomplexity": 4924,
      "Ġscraper": 4925,
      "Ġobviously": 4926,
      "documentation": 4927,
      "Ġfamiliar": 4928,
      "Opt": 4929,
      "Open": 4930,
      "RO": 4931,
      "pol": 4932,
      "pus": 4933,
      "pair": 4934,
      "Ġtmp": 4935,
      "Ġsays": 4936,
      "Ġigno": 4937,
      "Ġinten": 4938,
      "Ġinstru": 4939,
      "Ġdriver": 4940,
      "Ġgrid": 4941,
      "ĠCounter": 4942,
      "Ġhack": 4943,
      "ĠSent": 4944,
      "Ġalmost": 4945,
      "iving": 4946,
      "Ġspam": 4947,
      "Ġexplan": 4948,
      "ĠExtract": 4949,
      "Ġdecision": 4950,
      "Process": 4951,
      "Ġmeaning": 4952,
      "'},": 4953,
      "Ġrecommended": 4954,
      "ĠMySQLdb": 4955,
      "Ġwaiting": 4956,
      "ĠDecimal": 4957,
      "Ġhigher": 4958,
      "Ġbottom": 4959,
      "complete": 4960,
      "Ġslightly": 4961,
      "Function": 4962,
      "cf": 4963,
      "draw": 4964,
      "fibonacci": 4965,
      "imp": 4966,
      "istr": 4967,
      "lone": 4968,
      "oke": 4969,
      "pdf": 4970,
      "tutorial": 4971,
      "repr": 4972,
      "det": 4973,
      "orm": 4974,
      "itect": 4975,
      "htm": 4976,
      "ĠCPython": 4977,
      "getattr": 4978,
      "reference": 4979,
      "Ġmag": 4980,
      "service": 4981,
      "Ġkill": 4982,
      "Info": 4983,
      "([[": 4984,
      "substring": 4985,
      "Ġlengths": 4986,
      "requencies": 4987,
      "âĢĿ": 4988,
      "Ġinteresting": 4989,
      "session": 4990,
      "77": 4991,
      "85": 4992,
      ">\\": 4993,
      "Create": 4994,
      "Count": 4995,
      "Image": 4996,
      "Where": 4997,
      "hot": 4998,
      "none": 4999,
      "uk": 5000,
      "zed": 5001,
      "hex": 5002,
      "Ġindivid": 5003,
      "Ġdump": 5004,
      "ĠCGI": 5005,
      "Ġwhitespace": 5006,
      "Ġconvent": 5007,
      "Ġsometimes": 5008,
      "Ġnewline": 5009,
      "Ġhandling": 5010,
      "Ġradius": 5011,
      "2007": 5012,
      "attrs": 5013,
      "Ġstdin": 5014,
      "ElementTree": 5015,
      "digit": 5016,
      "record": 5017,
      "Ġfinally": 5018,
      "]):": 5019,
      "bind": 5020,
      "cern": 5021,
      "efficient": 5022,
      "ike": 5023,
      "lus": 5024,
      "Ġmenu": 5025,
      "Ġhit": 5026,
      "Ġlight": 5027,
      "illi": 5028,
      "ĠRandom": 5029,
      "Ġability": 5030,
      "Ġwebserver": 5031,
      "Ġoverride": 5032,
      "Ġimplements": 5033,
      "Ġ{}\".": 5034,
      "Ġsuggested": 5035,
      "ÂĢÂľ": 5036,
      "ÂĢÂĿ": 5037,
      "Ġsignificant": 5038,
      "Ġdebugging": 5039,
      "Ġhoping": 5040,
      ",'": 5041,
      "CRE": 5042,
      "RA": 5043,
      "city": 5044,
      "free": 5045,
      "gment": 5046,
      "je": 5047,
      "ral": 5048,
      "rating": 5049,
      "include": 5050,
      "alph": 5051,
      "rocess": 5052,
      "cessed": 5053,
      "oost": 5054,
      "vies": 5055,
      "Ġtested": 5056,
      "ĠJohn": 5057,
      "Ġinterfaces": 5058,
      "Ġminutes": 5059,
      "Ġformatting": 5060,
      "asically": 5061,
      "Ġsafe": 5062,
      "âĢĻ": 5063,
      "Ġclosest": 5064,
      "Ġdynamically": 5065,
      "seconds": 5066,
      "300": 5067,
      "aw": 5068,
      "frequency": 5069,
      "ied": 5070,
      "lush": 5071,
      "true": 5072,
      "uations": 5073,
      "orage": 5074,
      "Ġremember": 5075,
      "Ġear": 5076,
      "Ġones": 5077,
      "ĠInter": 5078,
      "idf": 5079,
      "convert": 5080,
      "aming": 5081,
      "Ġsorting": 5082,
      "logger": 5083,
      "aches": 5084,
      "syco": 5085,
      "ĠVis": 5086,
      "KE": 5087,
      "Simple": 5088,
      "pow": 5089,
      "Ġord": 5090,
      "stract": 5091,
      "Ġthus": 5092,
      "Ġhist": 5093,
      "asing": 5094,
      "Ġ(-": 5095,
      "Ġonline": 5096,
      "ĠAI": 5097,
      "startswith": 5098,
      "Ġlots": 5099,
      "Ġgrab": 5100,
      "ĠDoe": 5101,
      "Def": 5102,
      "Ġpreferred": 5103,
      "Ġtkinter": 5104,
      "Ġtensorflow": 5105,
      "Dir": 5106,
      "Po": 5107,
      "nn": 5108,
      "rb": 5109,
      "Ġess": 5110,
      "radius": 5111,
      "Ġsecurity": 5112,
      "Ġascending": 5113,
      "Ġmoment": 5114,
      "ĠMe": 5115,
      "Ġensure": 5116,
      "Ġrepresented": 5117,
      "Ġchildren": 5118,
      "Ġlowercase": 5119,
      ".'": 5120,
      ";!": 5121,
      "cm": 5122,
      "ef": 5123,
      "ftp": 5124,
      "Ġescape": 5125,
      "Ġsched": 5126,
      "Ġfont": 5127,
      "Ġcat": 5128,
      "Ġblank": 5129,
      "ĠIronPython": 5130,
      "Ġdelet": 5131,
      "____": 5132,
      "ĠInst": 5133,
      "ĠAut": 5134,
      "Ġ->": 5135,
      "Ġgetattr": 5136,
      "acity": 5137,
      "Ġexceptions": 5138,
      "override": 5139,
      "Ġpossibly": 5140,
      "Ġallowed": 5141,
      "Ġproductive": 5142,
      "Ġevents": 5143,
      "ĠUnfortunately": 5144,
      "Ġvisited": 5145,
      "Ġcombination": 5146,
      "safe": 5147,
      "UPDATE": 5148,
      "characters": 5149,
      "'&": 5150,
      "IR": 5151,
      "Le": 5152,
      "href": 5153,
      "ides": 5154,
      "pid": 5155,
      "Ġssh": 5156,
      "Ġcr": 5157,
      "Ġrelevant": 5158,
      "quit": 5159,
      "Ġmajor": 5160,
      "strftime": 5161,
      "strptime": 5162,
      "Ġsomewhere": 5163,
      "ĠRep": 5164,
      "Ġsubmit": 5165,
      "Ġtemperature": 5166,
      "Ġĉĉĉĉ": 5167,
      "Ġfilenames": 5168,
      "Ġshowing": 5169,
      "urrently": 5170,
      ")\"": 5171,
      "10000": 5172,
      "inf": 5173,
      "environ": 5174,
      "Ġreview": 5175,
      "loaded": 5176,
      "Ġdev": 5177,
      "ĠSub": 5178,
      "pyplot": 5179,
      "timeit": 5180,
      "ĠUI": 5181,
      "apache": 5182,
      "Ġfollowed": 5183,
      "optim": 5184,
      "Ġvalidation": 5185,
      "Ġviews": 5186,
      "Ġdepends": 5187,
      "Ġasked": 5188,
      "Ġduplicates": 5189,
      "reshold": 5190,
      "specific": 5191,
      "Ġpixel": 5192,
      ":\\\\": 5193,
      "Post": 5194,
      "SH": 5195,
      "fd": 5196,
      "high": 5197,
      "tle": 5198,
      "ym": 5199,
      "Â°": 5200,
      "Ġerr": 5201,
      "iness": 5202,
      "report": 5203,
      "Ġsv": 5204,
      "Ġbra": 5205,
      "Ġrestri": 5206,
      "Ġ'',": 5207,
      "ldap": 5208,
      "ĠWin": 5209,
      "Ġchat": 5210,
      "ĠMost": 5211,
      "ively": 5212,
      "spot": 5213,
      "ĠJust": 5214,
      "Ġstarts": 5215,
      "Ġpointed": 5216,
      "Ġhelps": 5217,
      "Ġregression": 5218,
      "Connection": 5219,
      "Ġincludes": 5220,
      "Ġmachines": 5221,
      "Ġdisplays": 5222,
      "Ġtoolkit": 5223,
      "----------------------------------------------------------------": 5224,
      "Apple": 5225,
      "Ġmarkup": 5226,
      "ĠIDLE": 5227,
      "Ġcalculates": 5228,
      "tributeError": 5229,
      "staticmethod": 5230,
      "FILE": 5231,
      "Ġmechanis": 5232,
      "Ġimmediately": 5233,
      "Ġdesired": 5234,
      "NET": 5235,
      "cgi": 5236,
      "cwd": 5237,
      "ev": 5238,
      "step": 5239,
      "Ġcy": 5240,
      "Ġdrive": 5241,
      "logs": 5242,
      "ĠPIL": 5243,
      "chain": 5244,
      "ayes": 5245,
      "ĠCalling": 5246,
      "master": 5247,
      "(\"%": 5248,
      "\");": 5249,
      "Ġgenerating": 5250,
      "Ġshouldn": 5251,
      "Ġnodes": 5252,
      "empty": 5253,
      "Ġasking": 5254,
      "Ġsituation": 5255,
      "CGI": 5256,
      "Des": 5257,
      "ges": 5258,
      "ran": 5259,
      "ruby": 5260,
      "such": 5261,
      "tn": 5262,
      "inct": 5263,
      "three": 5264,
      "Ġmist": 5265,
      "Ġrep": 5266,
      "Ġnull": 5267,
      "metri": 5268,
      "prefix": 5269,
      "ĠPDF": 5270,
      "Ġdecl": 5271,
      "Ġ#!/": 5272,
      "Ġprinting": 5273,
      "ĠSer": 5274,
      "Ġcodes": 5275,
      "Ġaren": 5276,
      "(\"\\": 5277,
      "Ġshare": 5278,
      "ĠGET": 5279,
      "'][": 5280,
      "ĠOut": 5281,
      "timeout": 5282,
      "spam": 5283,
      "Ġverbose": 5284,
      "settings": 5285,
      "adding": 5286,
      "([\"": 5287,
      "Return": 5288,
      "latten": 5289,
      "ĠSequential": 5290,
      "Ġpairs": 5291,
      "Ġauthentication": 5292,
      "Ġstatist": 5293,
      "mensional": 5294,
      "NB": 5295,
      "dot": 5296,
      "drop": 5297,
      "lers": 5298,
      "vate": 5299,
      "ond": 5300,
      "device": 5301,
      "depth": 5302,
      "Ġfav": 5303,
      "Ġ((": 5304,
      "Ġcoordin": 5305,
      "Ġconversion": 5306,
      "Ġconcern": 5307,
      "listdir": 5308,
      "Ġprogrammers": 5309,
      "caler": 5310,
      "Ġdesktop": 5311,
      "Ġprettyprint": 5312,
      "tokens": 5313,
      "mutation": 5314,
      "ABLE": 5315,
      "Ġindices": 5316,
      "ÂłÂł": 5317,
      "Ġremaining": 5318,
      ">)</": 5319,
      ">).</": 5320,
      "MA": 5321,
      "clo": 5322,
      "palindrome": 5323,
      "sage": 5324,
      "salary": 5325,
      "ttp": 5326,
      "ud": 5327,
      "reme": 5328,
      "comes": 5329,
      "Ġwatch": 5330,
      "urbo": 5331,
      "cell": 5332,
      "racle": 5333,
      "adata": 5334,
      "ĠTrans": 5335,
      "ĠDLL": 5336,
      "oper": 5337,
      "ĠĠĠĠĠĠĠĠĠĠĠĠĠĠĠĠĠĠĠĠ": 5338,
      "ĠĠĠĠĠĠĠĠĠĠĠĠĠĠĠĠĠĠĠĠĠĠĠĠ": 5339,
      "Ġ45": 5340,
      "],[": 5341,
      "Ġenable": 5342,
      "binary": 5343,
      "support": 5344,
      "168": 5345,
      "'}),": 5346,
      "ĠThread": 5347,
      "ernel": 5348,
      "herryPy": 5349,
      "ĠShould": 5350,
      "110": 5351,
      "CD": 5352,
      "Since": 5353,
      "balance": 5354,
      "git": 5355,
      "pub": 5356,
      "ying": 5357,
      "Ġauth": 5358,
      "Ġicon": 5359,
      "Ġcla": 5360,
      "ropy": 5361,
      "Ġimporting": 5362,
      "ĠST": 5363,
      "Ġtimeit": 5364,
      "ĠLibrary": 5365,
      "Ġtwice": 5366,
      "Ġcollect": 5367,
      "Ġsupposed": 5368,
      "Ġregard": 5369,
      "Ġtransp": 5370,
      "viously": 5371,
      "ĠProduct": 5372,
      "ĠCopy": 5373,
      "Ġportable": 5374,
      "Ġextend": 5375,
      "article": 5376,
      "Ġassume": 5377,
      "Ġreferences": 5378,
      "Ġinstructions": 5379,
      "DL": 5380,
      "LA": 5381,
      "Table": 5382,
      "Wid": 5383,
      "dll": 5384,
      "iod": 5385,
      "ones": 5386,
      "Ġpip": 5387,
      "Ġmut": 5388,
      "Ġmix": 5389,
      "Ġstoring": 5390,
      "icon": 5391,
      "icate": 5392,
      "Ġvim": 5393,
      "Ġloss": 5394,
      "ĠSto": 5395,
      "Ġ31": 5396,
      "(\"/": 5397,
      "ĠMIME": 5398,
      "Ġanybody": 5399,
      "Ġ42": 5400,
      "Ġinstanti": 5401,
      "ube": 5402,
      "rows": 5403,
      "prices": 5404,
      "Start": 5405,
      "Ġdeveloped": 5406,
      "labels": 5407,
      "Ġshows": 5408,
      "uffle": 5409,
      "Ġextreme": 5410,
      "Ġweights": 5411,
      "Ġdescribed": 5412,
      "Ġanalysis": 5413,
      "ĠElementTree": 5414,
      ":])": 5415,
      ">-": 5416,
      "SV": 5417,
      "Tw": 5418,
      "dc": 5419,
      "equal": 5420,
      "global": 5421,
      "Ġcriter": 5422,
      "lier": 5423,
      "Ġdue": 5424,
      "uting": 5425,
      "ĠPoint": 5426,
      "Ġprotect": 5427,
      "Ġclassification": 5428,
      "ĠMod": 5429,
      "setup": 5430,
      "Ġperl": 5431,
      "tributes": 5432,
      "Stack": 5433,
      "Ġhelpful": 5434,
      "Ġloops": 5435,
      "hape": 5436,
      "Ġphra": 5437,
      "Ġarchitect": 5438,
      "assertEqual": 5439,
      "EP": 5440,
      "Qt": 5441,
      "dumps": 5442,
      "Ġpunctuation": 5443,
      "Ġevaluate": 5444,
      "chron": 5445,
      "ully": 5446,
      "ĠSm": 5447,
      "###": 5448,
      "iding": 5449,
      "Ġnamespace": 5450,
      "application": 5451,
      "appengine": 5452,
      "Ġcomb": 5453,
      "Inter": 5454,
      "Ġtraceback": 5455,
      "Ġtrivial": 5456,
      "ialization": 5457,
      "roller": 5458,
      "ĠâĢľ": 5459,
      "ĠLogistic": 5460,
      "Ġdependencies": 5461,
      "Ġmetrics": 5462,
      "Ġassociated": 5463,
      "Ġsubstit": 5464,
      ")**": 5465,
      "68": 5466,
      "?<": 5467,
      "LY": 5468,
      "iction": 5469,
      "deally": 5470,
      "ency": 5471,
      "arity": 5472,
      "ĠIO": 5473,
      "ising": 5474,
      "ameters": 5475,
      "ands": 5476,
      "Ġwhose": 5477,
      "Ġvalidate": 5478,
      "ĠSince": 5479,
      "extract": 5480,
      "ids": 5481,
      "license": 5482,
      "ĠĠĠĠĠĠĠĠĠĠĠĠĠĠĠĠĠĠ": 5483,
      "Ġparsed": 5484,
      "Ġadds": 5485,
      "Ġcallback": 5486,
      "ĠSQLite": 5487,
      "Ġaccepted": 5488,
      "Ġcompiler": 5489,
      "Ġdiscuss": 5490,
      "Ġexplanation": 5491,
      "Ġmagic": 5492,
      ",-": 5493,
      ":\"": 5494,
      ">...": 5495,
      "Win": 5496,
      "category": 5497,
      "atio": 5498,
      "Ġflo": 5499,
      "Ġcraw": 5500,
      "live": 5501,
      "Ġbooks": 5502,
      "Ġred": 5503,
      "Ġdra": 5504,
      "Ġhy": 5505,
      "ĠPlease": 5506,
      "Ġglob": 5507,
      "ĠĠĠĠĠĠĠĠĠĠĠĠĠĠĠĠĠ": 5508,
      "ĠUbuntu": 5509,
      "Ġperiod": 5510,
      "Ġdifferences": 5511,
      "cheme": 5512,
      "Ġ99": 5513,
      "Ġdisco": 5514,
      "Ġiteration": 5515,
      "Child": 5516,
      "Ġelem": 5517,
      "headers": 5518,
      "Ġanagrams": 5519,
      "Ġadvance": 5520,
      "ĠVisual": 5521,
      "ASE": 5522,
      "Cli": 5523,
      "Hi": 5524,
      "Java": 5525,
      "Link": 5526,
      "MP": 5527,
      "agraph": 5528,
      "cher": 5529,
      "nb": 5530,
      "twe": 5531,
      "}}": 5532,
      "Ġschema": 5533,
      "Ġcandidates": 5534,
      "Ġdeveloper": 5535,
      "Ġreturning": 5536,
      "ĠGNU": 5537,
      "dataset": 5538,
      "Ġquote": 5539,
      "ĠGeneral": 5540,
      "Ġdescending": 5541,
      "compound": 5542,
      "msdn": 5543,
      "methods": 5544,
      "ĠURLs": 5545,
      "widget": 5546,
      "Ġclosures": 5547,
      "ĠArray": 5548,
      "fetchall": 5549,
      "({": 5550,
      "BeautifulSoup": 5551,
      "Dist": 5552,
      "MD": 5553,
      "Window": 5554,
      "aa": 5555,
      "card": 5556,
      "frequent": 5557,
      "gument": 5558,
      "hist": 5559,
      "iloc": 5560,
      "ked": 5561,
      "math": 5562,
      "}\")": 5563,
      "heap": 5564,
      "Ġfurther": 5565,
      "Ġcard": 5566,
      "Ġmig": 5567,
      "Ġ#################################": 5568,
      "ĠCPU": 5569,
      "ĠAN": 5570,
      "pyc": 5571,
      "izes": 5572,
      "Ġunpack": 5573,
      "']['": 5574,
      "ĠĠĠĠĠĠĠĠĠĠĠĠĠĠĠĠĠĠĠĠĠĠĠĠĠĠĠĠĠĠĠ": 5575,
      "ĠET": 5576,
      "lenv": 5577,
      "Ġcolors": 5578,
      "switch": 5579,
      "glet": 5580,
      "Ġsentences": 5581,
      "Ġdescript": 5582,
      "SIG": 5583,
      "Ġstores": 5584,
      "Ġautomate": 5585,
      "median": 5586,
      "related": 5587,
      "ualenv": 5588,
      "567": 5589,
      "Red": 5590,
      "UR": 5591,
      "average": 5592,
      "bc": 5593,
      "css": 5594,
      "gmail": 5595,
      "kb": 5596,
      "mble": 5597,
      "oot": 5598,
      "pan": 5599,
      "pur": 5600,
      "pages": 5601,
      "round": 5602,
      "ratch": 5603,
      "Ġge": 5604,
      "leg": 5605,
      "enum": 5606,
      "Ġdates": 5607,
      "asy": 5608,
      "Ġdefines": 5609,
      "ĠDis": 5610,
      "Ġjava": 5611,
      "izing": 5612,
      "Ġunsorted": 5613,
      "Ġends": 5614,
      "Ġ90": 5615,
      "logging": 5616,
      "Ġtrace": 5617,
      "suming": 5618,
      "Ġentries": 5619,
      "signal": 5620,
      "Ġwrap": 5621,
      "Ġcombinations": 5622,
      "Ġtweet": 5623,
      "Ġconsidered": 5624,
      "Ġlicense": 5625,
      "Ġcapture": 5626,
      "Ġextremely": 5627,
      "92": 5628,
      "LI": 5629,
      "PO": 5630,
      "Ser": 5631,
      "View": 5632,
      "WIG": 5633,
      "rm": 5634,
      "Ġouter": 5635,
      "aske": 5636,
      "entropy": 5637,
      "Ġ'&": 5638,
      "dim": 5639,
      "Ġresources": 5640,
      "ĠNow": 5641,
      "ĠMS": 5642,
      "ĠĠĠĠĠĠĠĠĠĠĠĠĠĠĠĠĠĠĠĠĠĠ": 5643,
      "ĠOK": 5644,
      "ains": 5645,
      "Ġcomplic": 5646,
      "Ġmins": 5647,
      "buf": 5648,
      "Ġmostly": 5649,
      "ĠStudio": 5650,
      "Ġmultiply": 5651,
      "modules": 5652,
      "Ġdecor": 5653,
      "Ġstuck": 5654,
      "CTION": 5655,
      "ategorical": 5656,
      "missions": 5657,
      "Ġsites": 5658,
      "Ġcomprehensions": 5659,
      "Ġconstraint": 5660,
      "Ġpurpose": 5661,
      "Ġattachments": 5662,
      "Ġtyped": 5663,
      "Ġpipeline": 5664,
      "Ġaxis": 5665,
      "Ġchatbot": 5666,
      "({'": 5667,
      "AE": 5668,
      "CP": 5669,
      "HO": 5670,
      "QU": 5671,
      "apt": 5672,
      "dl": 5673,
      "lder": 5674,
      "popen": 5675,
      "remote": 5676,
      "Ġpub": 5677,
      "Ġcatch": 5678,
      "arse": 5679,
      "Ġduring": 5680,
      "Ġnth": 5681,
      "Ġforget": 5682,
      "ished": 5683,
      "Ġliter": 5684,
      "ersion": 5685,
      "ĠSE": 5686,
      "Ġresolve": 5687,
      "')</": 5688,
      "ĠMultip": 5689,
      "ĠObject": 5690,
      "ĠBar": 5691,
      "Ġcompany": 5692,
      "Ġabs": 5693,
      "Ġparty": 5694,
      "results": 5695,
      "Ġconverted": 5696,
      "Ġlets": 5697,
      "Program": 5698,
      "Ġoptional": 5699,
      "Ġtransform": 5700,
      "Ġ255": 5701,
      "Ġinvol": 5702,
      "Ġoccurrences": 5703,
      "Ġmodifying": 5704,
      "..</": 5705,
      "/?": 5706,
      "58": 5707,
      "ESS": 5708,
      "bust": 5709,
      "fast": 5710,
      "gres": 5711,
      "kill": 5712,
      "Ġsending": 5713,
      "see": 5714,
      "Ġbubble": 5715,
      "Ġ\"_": 5716,
      "Ġstates": 5717,
      "ques": 5718,
      "adam": 5719,
      "Ġrate": 5720,
      "Ġ27": 5721,
      "ĠSystem": 5722,
      "ĠWik": 5723,
      "etree": 5724,
      "formed": 5725,
      "ista": 5726,
      "Ġresulting": 5727,
      "ĠXP": 5728,
      "short": 5729,
      "phone": 5730,
      "128": 5731,
      "Ġiterable": 5732,
      "ĠStart": 5733,
      "Ġsmart": 5734,
      "Ġ127": 5735,
      "Ġclients": 5736,
      "PEP": 5737,
      "Ġhappy": 5738,
      "Ġphp": 5739,
      "offset": 5740,
      "500": 5741,
      "FC": 5742,
      "NO": 5743,
      "Work": 5744,
      "YY": 5745,
      "]?": 5746,
      "aign": 5747,
      "kes": 5748,
      "vs": 5749,
      "Ġscale": 5750,
      "Ġfour": 5751,
      "Ġfalse": 5752,
      "Ġcron": 5753,
      "ĠPost": 5754,
      "iso": 5755,
      "Ġjumps": 5756,
      "tech": 5757,
      "Ġinputs": 5758,
      "Ġsubset": 5759,
      "six": 5760,
      "sible": 5761,
      "commun": 5762,
      "atively": 5763,
      "Ġcause": 5764,
      "Ġmissed": 5765,
      "Web": 5766,
      "Ġsteps": 5767,
      "casts": 5768,
      "Ġsaved": 5769,
      "Ġdecided": 5770,
      "cleaned": 5771,
      "Ġindividual": 5772,
      "Ġcriteria": 5773,
      "\";": 5774,
      "Google": 5775,
      "awn": 5776,
      "gly": 5777,
      "Ġshe": 5778,
      "ater": 5779,
      "student": 5780,
      "Ġcle": 5781,
      "oud": 5782,
      "']]": 5783,
      "ĠBASIC": 5784,
      "Ġcomma": 5785,
      "nections": 5786,
      "nown": 5787,
      "Ġteam": 5788,
      "Ġsmaller": 5789,
      "twisted": 5790,
      "Ġdistributed": 5791,
      "Ġutf": 5792,
      "register": 5793,
      "Ġreceived": 5794,
      "Ġadvantages": 5795,
      "Prime": 5796,
      "Ġinternal": 5797,
      "initely": 5798,
      "Ġrestrict": 5799,
      "Mon": 5800,
      "TO": 5801,
      "WS": 5802,
      "{%": 5803,
      "atives": 5804,
      "Ġpr": 5805,
      "Ġrefact": 5806,
      "Ġgl": 5807,
      "Ġ[-": 5808,
      "Ġvol": 5809,
      "Ġ26": 5810,
      "ĠSMTP": 5811,
      "Ġdivide": 5812,
      "ĠNU": 5813,
      "connection": 5814,
      "libs": 5815,
      "aving": 5816,
      "Ġchecked": 5817,
      "Ġinstalling": 5818,
      "Ġapproaches": 5819,
      "Ġstructures": 5820,
      "ÂĢÂĶ": 5821,
      "alyzer": 5822,
      "Ġglobals": 5823,
      "Ġemployee": 5824,
      "Ġmanipulate": 5825,
      "ĠCountVectorizer": 5826,
      ":/": 5827,
      ">['": 5828,
      "Print": 5829,
      "break": 5830,
      "fa": 5831,
      "xs": 5832,
      "inder": 5833,
      "rer": 5834,
      "ano": 5835,
      "lies": 5836,
      "Ġem": 5837,
      "uming": 5838,
      "into": 5839,
      "Ġgiving": 5840,
      "()))": 5841,
      "ational": 5842,
      "Ġlisting": 5843,
      "ĠAct": 5844,
      "pyd": 5845,
      "ĠFrom": 5846,
      "Ġweather": 5847,
      "ĠMult": 5848,
      "ĠGTK": 5849,
      "dos": 5850,
      "Ġverify": 5851,
      "Ġupon": 5852,
      "Ġbackend": 5853,
      "Ġregister": 5854,
      "sudo": 5855,
      "Ġproduces": 5856,
      "Ġroll": 5857,
      "Ġmanagement": 5858,
      "Integer": 5859,
      "Ġremoved": 5860,
      "SERT": 5861,
      "Ġencrypted": 5862,
      "Column": 5863,
      "ĠLinked": 5864,
      "Ġcomplicated": 5865,
      ":<": 5866,
      "CS": 5867,
      "sup": 5868,
      "snipp": 5869,
      "Ġcategory": 5870,
      "Ġcategories": 5871,
      "Ġcipher": 5872,
      "ĠPythonic": 5873,
      "Ġbecome": 5874,
      "()]": 5875,
      "Ġ[('": 5876,
      "Ġrating": 5877,
      "Ġconven": 5878,
      "ĠSimple": 5879,
      "serve": 5880,
      "Ġwebpage": 5881,
      "Ġsolved": 5882,
      "Ġscen": 5883,
      "auto": 5884,
      "ĠConfig": 5885,
      "isect": 5886,
      "Ġtranslate": 5887,
      "Ġrequirements": 5888,
      "Ġpickle": 5889,
      "Query": 5890,
      "Ġsmtplib": 5891,
      "Ġdecide": 5892,
      "Ġintended": 5893,
      "ĠLogisticRegression": 5894,
      "(_": 5895,
      "76": 5896,
      "?\"": 5897,
      "Event": 5898,
      "Fr": 5899,
      "Rec": 5900,
      "_(": 5901,
      "blob": 5902,
      "eep": 5903,
      "fam": 5904,
      "nc": 5905,
      "oss": 5906,
      "ris": 5907,
      "sqlite": 5908,
      "similar": 5909,
      "rev": 5910,
      "Ġfriend": 5911,
      "Ġmp": 5912,
      "Ġrepository": 5913,
      "Ġexc": 5914,
      "ĠBinary": 5915,
      "Ġcoming": 5916,
      "amount": 5917,
      "Ġservices": 5918,
      "Ġstrong": 5919,
      "Ġscratch": 5920,
      "Project": 5921,
      "Ġwonder": 5922,
      "Ġreasonable": 5923,
      "xxxx": 5924,
      "Ġdistribute": 5925,
      "Ġpractice": 5926,
      "browser": 5927,
      "Ġquantity": 5928,
      "jection": 5929,
      ".+)": 5930,
      "/&": 5931,
      "END": 5932,
      "Ne": 5933,
      "cnt": 5934,
      "vm": 5935,
      "att": 5936,
      "ora": 5937,
      "Ġboolean": 5938,
      "edu": 5939,
      "uman": 5940,
      "Ġdetermin": 5941,
      "uler": 5942,
      "Ġsomehow": 5943,
      "Ġweek": 5944,
      "ĠEX": 5945,
      "ĠEnt": 5946,
      "ĠBest": 5947,
      "ĠREST": 5948,
      "curr": 5949,
      "Ġsorts": 5950,
      "ĠJavascript": 5951,
      "submit": 5952,
      "Ġmember": 5953,
      "ITEM": 5954,
      "ALU": 5955,
      "Ġconstructor": 5956,
      "Ġbehaviour": 5957,
      "Ġconvention": 5958,
      "Ġphrase": 5959,
      ")',": 5960,
      "-&": 5961,
      "Tk": 5962,
      "eff": 5963,
      "lcome": 5964,
      "many": 5965,
      "screen": 5966,
      "inspect": 5967,
      "Ġsalary": 5968,
      "leting": 5969,
      "Ġpatch": 5970,
      "Ġplot": 5971,
      "Ġcity": 5972,
      "secret": 5973,
      "Ġecho": 5974,
      "ummy": 5975,
      "Ġ\"--": 5976,
      "Ġ()": 5977,
      "ĠCherryPy": 5978,
      "ssql": 5979,
      "ongo": 5980,
      "('%": 5981,
      "Ġwelcome": 5982,
      "licity": 5983,
      "profile": 5984,
      "Ġenv": 5985,
      "Ġthanks": 5986,
      "urls": 5987,
      "Ġimplementations": 5988,
      "Ġtriangle": 5989,
      "Ġprobability": 5990,
      "DEF": 5991,
      "without": 5992,
      "'})": 5993,
      "Ġoptimized": 5994,
      "ruit": 5995,
      "Ġupdates": 5996,
      "memory": 5997,
      "Ġremoving": 5998,
      "Ġraised": 5999,
      "Entry": 6000,
      "ĠSentiment": 6001,
      "VE": 6002,
      "bs": 6003,
      "fn": 6004,
      "fail": 6005,
      "gender": 6006,
      "Ġali": 6007,
      "reet": 6008,
      "recur": 6009,
      "Ġwarning": 6010,
      "arb": 6011,
      "esides": 6012,
      "rap": 6013,
      "Ġlive": 6014,
      "olution": 6015,
      "Ġlisted": 6016,
      "idom": 6017,
      "Ġrespect": 6018,
      "ĠHello": 6019,
      "Ġunexpected": 6020,
      "ĠOther": 6021,
      "timestamp": 6022,
      "Ġ***": 6023,
      "rency": 6024,
      "Ġinteract": 6025,
      "Ġmanner": 6026,
      "Ġscp": 6027,
      "Product": 6028,
      "Ġfactor": 6029,
      "Ġdevelopers": 6030,
      "Ġgreet": 6031,
      "eek": 6032,
      "choices": 6033,
      "Ġkeeping": 6034,
      "Ġrobust": 6035,
      "Ġshortcut": 6036,
      "written": 6037,
      "piper": 6038,
      "Ġuppercase": 6039,
      "Ġstrip": 6040,
      "Ġcircum": 6041,
      "rpclib": 6042,
      "Func": 6043,
      "GR": 6044,
      "Mac": 6045,
      "ZE": 6046,
      "]),": 6047,
      "dump": 6048,
      "linux": 6049,
      "xrange": 6050,
      "Ã©": 6051,
      "Ġten": 6052,
      "Ġdead": 6053,
      "Ġlxml": 6054,
      "emails": 6055,
      "expr": 6056,
      "ĠTO": 6057,
      "Ġneural": 6058,
      "ĠAND": 6059,
      "Ġdirection": 6060,
      "permutations": 6061,
      "tests": 6062,
      "archive": 6063,
      "mysql": 6064,
      "ached": 6065,
      "Ġalgorithms": 6066,
      "Ġconverts": 6067,
      "ĠExcel": 6068,
      "Ġmainly": 6069,
      "ĠPyG": 6070,
      "Ġgrade": 6071,
      "Sequence": 6072,
      "Ġextensions": 6073,
      "Application": 6074,
      "Response": 6075,
      "Ġopin": 6076,
      "Ġmanipulation": 6077,
      "Logger": 6078,
      "Values": 6079,
      "Ġbroken": 6080,
      "Ġcoordinates": 6081,
      "Ġarchitecture": 6082,
      "pipermail": 6083,
      ">),": 6084,
      "Age": 6085,
      "NS": 6086,
      "ae": 6087,
      "false": 6088,
      "ns": 6089,
      "ov": 6090,
      "pdb": 6091,
      "Ġping": 6092,
      "Ġpain": 6093,
      "Ġinf": 6094,
      "sel": 6095,
      "sep": 6096,
      "Ġbash": 6097,
      "Ġbaz": 6098,
      "Ġreviews": 6099,
      "Ġevalu": 6100,
      "ĠPublic": 6101,
      "chase": 6102,
      "Ġ'*": 6103,
      "Ġlife": 6104,
      "Ġgcd": 6105,
      "Ġcool": 6106,
      "ĠTemp": 6107,
      "Ġvide": 6108,
      "digest": 6109,
      "')]": 6110,
      "omial": 6111,
      "ĠEmp": 6112,
      "spath": 6113,
      "capy": 6114,
      "Ġstartup": 6115,
      "Ġbackup": 6116,
      "Ġfastest": 6117,
      "ĠĠĠĠĠĠĠĠĠĠĠĠĠĠĠĠĠĠĠĠĠĠĠĠĠĠĠĠĠĠĠĠĠĠ": 6118,
      "3702": 6119,
      "Ġplatforms": 6120,
      "party": 6121,
      "Ġfinished": 6122,
      "ĠAdmin": 6123,
      "Generator": 6124,
      "customer": 6125,
      "required": 6126,
      "Ġ:-)</": 6127,
      "ĠReplace": 6128,
      "/.": 6129,
      "78": 6130,
      ":'": 6131,
      "=%": 6132,
      "Min": 6133,
      "bly": 6134,
      "framework": 6135,
      "mult": 6136,
      "person": 6137,
      "rwx": 6138,
      "zero": 6139,
      "orange": 6140,
      "ority": 6141,
      "ename": 6142,
      "sec": 6143,
      "Ġmouse": 6144,
      "Ġest": 6145,
      "Ġhome": 6146,
      "ĠPopen": 6147,
      "ĠPlone": 6148,
      "Ġforce": 6149,
      "enter": 6150,
      "Ġprogress": 6151,
      "ĠCOM": 6152,
      "ĠSw": 6153,
      "maz": 6154,
      "listen": 6155,
      "ĠHe": 6156,
      "ĠMP": 6157,
      "']:": 6158,
      "poses": 6159,
      "Ġpercent": 6160,
      "Ġdecent": 6161,
      "Ġstandalone": 6162,
      "Ġcompletion": 6163,
      "Ġdatasets": 6164,
      "Ġsaw": 6165,
      "Ġ256": 6166,
      "Ġpopular": 6167,
      "Well": 6168,
      "ĠStringIO": 6169,
      "limiter": 6170,
      "Ġdescrib": 6171,
      "ĠUTC": 6172,
      "Ġbenefit": 6173,
      "today": 6174,
      "Ġcauses": 6175,
      "Ġsuitable": 6176,
      ";\\": 6177,
      "Ac": 6178,
      "DS": 6179,
      "Sp": 6180,
      "VS": 6181,
      "actions": 6182,
      "dat": 6183,
      "equ": 6184,
      "Ġfn": 6185,
      "separ": 6186,
      "Ġrealize": 6187,
      "itive": 6188,
      "utral": 6189,
      "vered": 6190,
      "Ġsequences": 6191,
      "Ġexcel": 6192,
      "ĠCol": 6193,
      "Ġrand": 6194,
      "ptr": 6195,
      "Ġconnections": 6196,
      "coming": 6197,
      "ĠNew": 6198,
      "iming": 6199,
      "ffff": 6200,
      "Ġparalle": 6201,
      "Ġprec": 6202,
      "mainloop": 6203,
      "Ġurls": 6204,
      "logy": 6205,
      "Ġsuppose": 6206,
      "Ġ2007": 6207,
      "192": 6208,
      "Ġefficiently": 6209,
      "Ġinvoke": 6210,
      "Ġaccepts": 6211,
      "(.*": 6212,
      "More": 6213,
      "Meta": 6214,
      "Other": 6215,
      "categorical": 6216,
      "lon": 6217,
      "Ġsen": 6218,
      "ctypes": 6219,
      "Ġhidden": 6220,
      "Ġbecomes": 6221,
      "Ġwiki": 6222,
      "abilities": 6223,
      "abspath": 6224,
      "ĠWhere": 6225,
      "ĠDatabase": 6226,
      "reshape": 6227,
      "lap": 6228,
      "Ġsetuptools": 6229,
      "cipe": 6230,
      "Ġcommit": 6231,
      "Ġprep": 6232,
      "trs": 6233,
      "umption": 6234,
      "Ġallowing": 6235,
      "Ġago": 6236,
      "Ġexecuting": 6237,
      "Ġlimited": 6238,
      "Ġloading": 6239,
      "links": 6240,
      "Ġselected": 6241,
      "loyee": 6242,
      "Ġcertainly": 6243,
      "Forest": 6244,
      "herrypy": 6245,
      "Ġbytecode": 6246,
      "blue": 6247,
      "ĠStore": 6248,
      "Ġscenari": 6249,
      "'^": 6250,
      "={": 6251,
      "Iter": 6252,
      "Ruby": 6253,
      "SET": 6254,
      "YPE": 6255,
      "aml": 6256,
      "blah": 6257,
      "cmp": 6258,
      "cra": 6259,
      "scale": 6260,
      "inc": 6261,
      "indent": 6262,
      "Ġimap": 6263,
      "Ġpa": 6264,
      "thanks": 6265,
      "Ġcgi": 6266,
      "Ġcalendar": 6267,
      "room": 6268,
      "Ġanimal": 6269,
      "itor": 6270,
      "pread": 6271,
      "ĠPri": 6272,
      "issor": 6273,
      "Ġdefining": 6274,
      "getcwd": 6275,
      "male": 6276,
      "Ġchr": 6277,
      "usic": 6278,
      "ĠMo": 6279,
      "ĠMeta": 6280,
      "ĠMaybe": 6281,
      "ĠĠĠĠĠĠĠĠĠĠĠĠĠĠĠĠĠĠĠĠĠ": 6282,
      "ĠOb": 6283,
      "readlines": 6284,
      "ĠRE": 6285,
      "Ġhasattr": 6286,
      "Ġsubtract": 6287,
      "Ġsummary": 6288,
      "blocking": 6289,
      "Ġimplementing": 6290,
      "Ġmultiplication": 6291,
      "Ġterm": 6292,
      "ĠQueue": 6293,
      "media": 6294,
      "Ġzipfile": 6295,
      "ACE": 6296,
      "Ġdocstring": 6297,
      "ĠFinding": 6298,
      "Ġattrs": 6299,
      "Ġdestination": 6300,
      "Ġbehind": 6301,
      "Ġflexible": 6302,
      "BOSE": 6303,
      "chronous": 6304,
      "47": 6305,
      "62": 6306,
      "Next": 6307,
      "Pre": 6308,
      "]|": 6309,
      "dtype": 6310,
      "font": 6311,
      "good": 6312,
      "ole": 6313,
      "wer": 6314,
      "Ġ^": 6315,
      "Ġins": 6316,
      "anced": 6317,
      "Ġocc": 6318,
      "Ġrely": 6319,
      "ctest": 6320,
      "Ġhook": 6321,
      "chunks": 6322,
      "ifies": 6323,
      "Ġlocale": 6324,
      "Ġmoving": 6325,
      "Ġmeant": 6326,
      "Ġ33": 6327,
      "Ġprogrammer": 6328,
      "Ġweird": 6329,
      "ĠEach": 6330,
      "proxy": 6331,
      "Ġenco": 6332,
      "Ġgoal": 6333,
      "aking": 6334,
      "weather": 6335,
      "negative": 6336,
      "ĠĉčĊ": 6337,
      "Ġunderlying": 6338,
      "Ġformatted": 6339,
      "Ġoperating": 6340,
      "Ġposts": 6341,
      "running": 6342,
      "ORT": 6343,
      "click": 6344,
      "Ġdivision": 6345,
      "Ġretrie": 6346,
      "Ġsquares": 6347,
      "Ġsuccessfully": 6348,
      "Ġcircle": 6349,
      "largest": 6350,
      "Ġmechanism": 6351,
      "ĠCopyright": 6352,
      "ĠIOError": 6353,
      "Fibonacci": 6354,
      "Gra": 6355,
      "Has": 6356,
      "Title": 6357,
      "_%": 6358,
      "driver": 6359,
      "ein": 6360,
      "ker": 6361,
      "vas": 6362,
      "Ġspread": 6363,
      "attributes": 6364,
      "Ġbus": 6365,
      "roy": 6366,
      "Ġugly": 6367,
      "Ġ'<": 6368,
      "emove": 6369,
      "iling": 6370,
      "dimensional": 6371,
      "Ġart": 6372,
      "Ġsudo": 6373,
      "ĠFast": 6374,
      "ĠFore": 6375,
      "Ġchann": 6376,
      "Ġ34": 6377,
      "ĠGlade": 6378,
      "ĠBecause": 6379,
      "Ġended": 6380,
      "Ġupload": 6381,
      "Ġpress": 6382,
      "pool": 6383,
      "Ġpermutation": 6384,
      "Ġ70": 6385,
      "lowercase": 6386,
      "white": 6387,
      "Ġ1234": 6388,
      "population": 6389,
      "Ġlatter": 6390,
      "Ġcomputing": 6391,
      "sqlalchemy": 6392,
      "Ġdepth": 6393,
      "ĠOpenGL": 6394,
      "Ġincrement": 6395,
      "VERBOSE": 6396,
      "sheet": 6397,
      "ĠSOAP": 6398,
      "ULT": 6399,
      "rocessing": 6400,
      "Ġfavor": 6401,
      "selves": 6402,
      "cir": 6403,
      "hidden": 6404,
      "mtime": 6405,
      "pboard": 6406,
      "say": 6407,
      "scipy": 6408,
      "vowels": 6409,
      "Ġfront": 6410,
      "Ġrefer": 6411,
      "Ġthreshold": 6412,
      "Ġ'{": 6413,
      "undle": 6414,
      "Ġgender": 6415,
      "exception": 6416,
      "expression": 6417,
      "Ġconverting": 6418,
      "ĠDense": 6419,
      "('.": 6420,
      "Ġjump": 6421,
      "')[": 6422,
      "force": 6423,
      "ĠNe": 6424,
      "question": 6425,
      "\")</": 6426,
      "ĠLua": 6427,
      "Ġ/&": 6428,
      "splitlines": 6429,
      "Ġdisable": 6430,
      "ĠVista": 6431,
      "gorithm": 6432,
      "[:-": 6433,
      "ĠPylons": 6434,
      "iteritems": 6435,
      "Ġeventually": 6436,
      "Ġclar": 6437,
      "rupt": 6438,
      "iko": 6439,
      "Ġconstant": 6440,
      "Ġ....": 6441,
      "ĠContent": 6442,
      "Ġnormalize": 6443,
      "Traceback": 6444,
      "ĠUpdate": 6445,
      "Ġsounds": 6446,
      "Ġpotentially": 6447,
      "Ġdiscussion": 6448,
      "snippets": 6449,
      "Ġconvenient": 6450,
      "\"'": 6451,
      ")])": 6452,
      "Aut": 6453,
      "Bob": 6454,
      "Good": 6455,
      "RI": 6456,
      "dt": 6457,
      "vin": 6458,
      "}]": 6459,
      "inomial": 6460,
      "Ġsources": 6461,
      "orry": 6462,
      "ering": 6463,
      "Ġfp": 6464,
      "Ġfully": 6465,
      "Ġ'_": 6466,
      "odd": 6467,
      "ĠAS": 6468,
      "Ġsomewhat": 6469,
      "ĠFit": 6470,
      "ĠFound": 6471,
      "Ġ35": 6472,
      "Ġshift": 6473,
      "perties": 6474,
      "movie": 6475,
      "does": 6476,
      "ĠUS": 6477,
      "wire": 6478,
      "Ġ>>": 6479,
      "Ġpointers": 6480,
      "Ġwriter": 6481,
      "Ġhandy": 6482,
      "Ġservers": 6483,
      "Ġtempor": 6484,
      "ĠReg": 6485,
      "Ġposted": 6486,
      "vision": 6487,
      "greg": 6488,
      "booking": 6489,
      "positive": 6490,
      "Ġdesigned": 6491,
      "Ġdivisor": 6492,
      "=[]": 6493,
      "ĠCalcul": 6494,
      "Ġlayout": 6495,
      "ĠAttributeError": 6496,
      "Ġtweets": 6497,
      "Ġembedded": 6498,
      "Ġresponses": 6499,
      "Command": 6500,
      "ĠUTF": 6501,
      "BUG": 6502,
      "Ġtalking": 6503,
      "Â°Â°": 6504,
      "ĠSmith": 6505,
      "$',": 6506,
      "??": 6507,
      "CM": 6508,
      "VM": 6509,
      "Valid": 6510,
      "WA": 6511,
      "auss": 6512,
      "hone": 6513,
      "ja": 6514,
      "javascript": 6515,
      "Ġtend": 6516,
      "Ġfive": 6517,
      "Ġfac": 6518,
      "Ġpers": 6519,
      "Ġmn": 6520,
      "Ġmine": 6521,
      "Ġopp": 6522,
      "Ġstats": 6523,
      "ĠCustom": 6524,
      "Ġ29": 6525,
      "Ġdialog": 6526,
      "ĠFirst": 6527,
      "usion": 6528,
      "feed": 6529,
      "Ġserve": 6530,
      "Ġperm": 6531,
      "Ġmanager": 6532,
      "illa": 6533,
      "Ġcontained": 6534,
      "Ġentered": 6535,
      "Ġbuilds": 6536,
      "Change": 6537,
      "DataFrame": 6538,
      "ĠSearch": 6539,
      "ĠChar": 6540,
      "egg": 6541,
      "Ġrecursion": 6542,
      "Ġremoves": 6543,
      "Ġemployer": 6544,
      "Ġrelatively": 6545,
      "Ġpowerful": 6546,
      "================================": 6547,
      "ĠORM": 6548,
      "Ġcommunity": 6549,
      "Ġmacro": 6550,
      "Ġepochs": 6551,
      "Ġdeclar": 6552,
      "Ġrefactoring": 6553,
      "->": 6554,
      "Pos": 6555,
      "Za": 6556,
      "bits": 6557,
      "cu": 6558,
      "dates": 6559,
      "ogram": 6560,
      "sig": 6561,
      "xim": 6562,
      "Ġreli": 6563,
      "meta": 6564,
      "ĠIM": 6565,
      "ĠPYTHONPATH": 6566,
      "vex": 6567,
      "tparse": 6568,
      "Ġroute": 6569,
      "igno": 6570,
      "ifference": 6571,
      "ĠDE": 6572,
      ")).": 6573,
      "Ġ{{": 6574,
      "filepath": 6575,
      ").__": 6576,
      "necess": 6577,
      "Ġserial": 6578,
      "ityAn": 6579,
      "Ġknown": 6580,
      "Ġiterating": 6581,
      "byte": 6582,
      "Ġdefaults": 6583,
      "Ġintegration": 6584,
      "groupby": 6585,
      "Search": 6586,
      "Ġseparated": 6587,
      "ORM": 6588,
      "Ġunderstanding": 6589,
      "Ġshortest": 6590,
      "Ġsituations": 6591,
      "Intens": 6592,
      "Ġdefinitions": 6593,
      "browse": 6594,
      "Ġrepeat": 6595,
      "RequestHandler": 6596,
      "Ġconsistent": 6597,
      "crossentropy": 6598,
      "ĠRandomForest": 6599,
      "IntensityAn": 6600,
      "!\",": 6601,
      "46": 6602,
      "8000": 6603,
      ">_": 6604,
      "Multip": 6605,
      "ium": 6606,
      "iref": 6607,
      "ired": 6608,
      "pat": 6609,
      "rr": 6610,
      "tain": 6611,
      "Â©": 6612,
      "stuff": 6613,
      "Ġpay": 6614,
      "Ġwish": 6615,
      "ench": 6616,
      "Ġbalance": 6617,
      "Ġsear": 6618,
      "Ġsegment": 6619,
      "Ġgit": 6620,
      "ĠTable": 6621,
      "andard": 6622,
      "illy": 6623,
      "Ġloaded": 6624,
      "ĠAfter": 6625,
      "exten": 6626,
      "Ġjoin": 6627,
      "conn": 6628,
      "ĠEmacs": 6629,
      "oken": 6630,
      "spaces": 6631,
      "Ġvers": 6632,
      "Ġgeneration": 6633,
      "Ġabstract": 6634,
      "...)": 6635,
      "trl": 6636,
      "Invalid": 6637,
      "Ġpermissions": 6638,
      "blocks": 6639,
      "Ġthemselves": 6640,
      "buffer": 6641,
      "State": 6642,
      "INSERT": 6643,
      "Ġpylons": 6644,
      "bye": 6645,
      "Convert": 6646,
      "++,": 6647,
      "Ġoptimizer": 6648,
      "Ġpatterns": 6649,
      "ALL": 6650,
      "Ġwrapped": 6651,
      "anagram": 6652,
      "Ġincrease": 6653,
      "Ġreleased": 6654,
      "Ġarchive": 6655,
      "Instance": 6656,
      "ĠINTO": 6657,
      "Ġcomponents": 6658,
      "Ġtechnique": 6659,
      "uzzle": 6660,
      "Ġawk": 6661,
      "Ġessentially": 6662,
      "ymous": 6663,
      "nbsp": 6664,
      "ĠMultinomial": 6665,
      "ĠSentimentIntensityAn": 6666,
      "irefox": 6667,
      "($": 6668,
      ";'": 6669,
      "Basically": 6670,
      "End": 6671,
      "cx": 6672,
      "five": 6673,
      "rl": 6674,
      "sk": 6675,
      "tail": 6676,
      "onymous": 6677,
      "ĠPO": 6678,
      "ĠPR": 6679,
      "Ġ[{'": 6680,
      "getattribute": 6681,
      "Ġconse": 6682,
      "Ġmoved": 6683,
      "ĠSample": 6684,
      "named": 6685,
      "ĠGra": 6686,
      "accept": 6687,
      "fileno": 6688,
      "ĠBook": 6689,
      "Ġkeywords": 6690,
      "Ġprimary": 6691,
      "Ġmodification": 6692,
      "news": 6693,
      "Ġskip": 6694,
      "MySQL": 6695,
      "Ġconfigured": 6696,
      "distrib": 6697,
      "Ġgradient": 6698,
      "Ġtitles": 6699,
      "Ġcomputation": 6700,
      "While": 6701,
      "Ġalpha": 6702,
      "columns": 6703,
      "Ġdeployment": 6704,
      "elem": 6705,
      "Ġfrequently": 6706,
      "TENT": 6707,
      "original": 6708,
      "Download": 6709,
      "Ġdaemon": 6710,
      "Ġschedule": 6711,
      "Ġstatistical": 6712,
      "Widget": 6713,
      "ĠSentimentIntensityAnalyzer": 6714,
      "/'": 6715,
      "Have": 6716,
      "JAX": 6717,
      "Person": 6718,
      "best": 6719,
      "oth": 6720,
      "tuples": 6721,
      "uous": 6722,
      "wall": 6723,
      "Ġtick": 6724,
      "ini": 6725,
      "eric": 6726,
      "stock": 6727,
      "Ġwent": 6728,
      "around": 6729,
      "loss": 6730,
      "Ġhang": 6731,
      "Ġsec": 6732,
      "Ġgtk": 6733,
      "about": 6734,
      "Ġsoon": 6735,
      "Ġwhite": 6736,
      "Ġmaster": 6737,
      "Ġmeas": 6738,
      "ĠFTP": 6739,
      "acket": 6740,
      "Ġjavascript": 6741,
      "ĠMain": 6742,
      "acter": 6743,
      "Ġrelations": 6744,
      "Ġwhenever": 6745,
      "Ġsubstrings": 6746,
      "Stream": 6747,
      "Reg": 6748,
      "ĠRegex": 6749,
      "Proxy": 6750,
      "Exec": 6751,
      "UID": 6752,
      "Ġkeeps": 6753,
      "mods": 6754,
      "Ġnorm": 6755,
      "ĠYork": 6756,
      "ARY": 6757,
      "ĠQt": 6758,
      "Ġlevels": 6759,
      "Ġsurpri": 6760,
      "ĠMethod": 6761,
      "Ġdecorated": 6762,
      "Ġparallel": 6763,
      "issors": 6764,
      "AF": 6765,
      "FT": 6766,
      "OG": 6767,
      "Oracle": 6768,
      "PR": 6769,
      "Source": 6770,
      "ees": 6771,
      "fits": 6772,
      "pm": 6773,
      "stream": 6774,
      "Ġpat": 6775,
      "Ġpan": 6776,
      "Ġcm": 6777,
      "Ġmilli": 6778,
      "Ġolder": 6779,
      "rot": 6780,
      "iss": 6781,
      "Ġstorage": 6782,
      "gtk": 6783,
      "ĠTry": 6784,
      "ĠTEXT": 6785,
      "extraction": 6786,
      "Ġdiag": 6787,
      "comment": 6788,
      "Ġalt": 6789,
      "Ġchart": 6790,
      "Ġanywhere": 6791,
      "ĠEvent": 6792,
      "ĠBe": 6793,
      "Ġparagraph": 6794,
      "arest": 6795,
      "Ġmatters": 6796,
      "Ġvariant": 6797,
      "calculate": 6798,
      "Ġendfor": 6799,
      "ickle": 6800,
      "Ġseeing": 6801,
      "ĠStudent": 6802,
      "pipe": 6803,
      "latest": 6804,
      "Ġtopic": 6805,
      "mediate": 6806,
      "Ġfigured": 6807,
      "Ġinvalid": 6808,
      "Ġhighlight": 6809,
      "ABC": 6810,
      "INGS": 6811,
      "Ġrendering": 6812,
      "Ġcomparing": 6813,
      "Ġflags": 6814,
      "Ġpurposes": 6815,
      "Ġattachment": 6816,
      "Decorator": 6817,
      "clusive": 6818,
      "metrics": 6819,
      "Ġprecision": 6820,
      "Build": 6821,
      "Group": 6822,
      "MT": 6823,
      "]{": 6824,
      "cred": 6825,
      "flush": 6826,
      "hour": 6827,
      "mm": 6828,
      "nix": 6829,
      "developer": 6830,
      "Ġsong": 6831,
      "atis": 6832,
      "Ġreader": 6833,
      "Ġans": 6834,
      "Ġanno": 6835,
      "Ġnic": 6836,
      "ĠPATH": 6837,
      "Ġgoog": 6838,
      "Ġdefinitely": 6839,
      "Ġls": 6840,
      "ĠCre": 6841,
      "ĠCMD": 6842,
      "Ġrout": 6843,
      "Ġaspect": 6844,
      "Ġvoid": 6845,
      "Ġsuite": 6846,
      "ĠLast": 6847,
      "Ġ*=": 6848,
      "ffice": 6849,
      "Ġurlparse": 6850,
      "ĠVALU": 6851,
      "sumer": 6852,
      "Ġdistutils": 6853,
      "ĠProcess": 6854,
      "Ġtyping": 6855,
      "Ġpreser": 6856,
      "Ġimplicit": 6857,
      "Ġbinding": 6858,
      "samples": 6859,
      "Ġfeeling": 6860,
      "Ġcookie": 6861,
      "Ġrecognize": 6862,
      "pecific": 6863,
      "Ġmarks": 6864,
      "polarity": 6865,
      "Ġdeleted": 6866,
      "ĠMultinomialNB": 6867,
      "USER": 6868,
      "fill": 6869,
      "ico": 6870,
      "known": 6871,
      "ny": 6872,
      "pk": 6873,
      "ped": 6874,
      "wb": 6875,
      "Ġve": 6876,
      "Ġesca": 6877,
      "Ġpict": 6878,
      "Ġmime": 6879,
      "Ġrewrite": 6880,
      "Ġrewriting": 6881,
      "otal": 6882,
      "ints": 6883,
      "Ġprofile": 6884,
      "exc": 6885,
      "Ġascii": 6886,
      "ĠSWIG": 6887,
      "cons": 6888,
      "Ġpool": 6889,
      "ĠĠĠĠĠĠĠĠĠĠĠĠĠĠĠĠĠĠĠĠĠĠĠĠĠĠĠĠĠĠĠĠĠĠĠ": 6890,
      "Ġtimezone": 6891,
      "Ġsetattr": 6892,
      "ĠThese": 6893,
      "week": 6894,
      "Ġwebapp": 6895,
      "minator": 6896,
      "101": 6897,
      "Ġtaken": 6898,
      "full": 6899,
      "1111": 6900,
      "duction": 6901,
      "999": 6902,
      "Ġfactory": 6903,
      "Ġequation": 6904,
      "Ġsimplif": 6905,
      "iterate": 6906,
      "Ġcaused": 6907,
      "mutable": 6908,
      "Ġcluster": 6909,
      "ĠYour": 6910,
      "ART": 6911,
      "Ġthoughts": 6912,
      "Ġguide": 6913,
      "Ġworry": 6914,
      "cutive": 6915,
      "wrapper": 6916,
      "Ġinheritance": 6917,
      "ĠFastCGI": 6918,
      "necessary": 6919,
      "ĠVALUES": 6920,
      "(**": 6921,
      "93": 6922,
      "AIL": 6923,
      "Call": 6924,
      "LAB": 6925,
      "Sc": 6926,
      "alist": 6927,
      "candidates": 6928,
      "half": 6929,
      "xt": 6930,
      "yes": 6931,
      "}'": 6932,
      "}_": 6933,
      "Ġ00": 6934,
      "develop": 6935,
      "Ġtherefore": 6936,
      "encoding": 6937,
      "Ġche": 6938,
      "Ġcaching": 6939,
      "Ġtook": 6940,
      "Ġnaming": 6941,
      "ĠISO": 6942,
      "ented": 6943,
      "Ġ'+": 6944,
      "Ġ'')": 6945,
      "Ġneighb": 6946,
      "divis": 6947,
      "ĠFe": 6948,
      "Ġalert": 6949,
      "Ġapparently": 6950,
      "Ġwants": 6951,
      "proc": 6952,
      "achine": 6953,
      "setattr": 6954,
      "Ġbeta": 6955,
      "Ġamong": 6956,
      "bob": 6957,
      "ifiers": 6958,
      "Ġtries": 6959,
      "axis": 6960,
      "Ġsaying": 6961,
      "Ġediting": 6962,
      "Section": 6963,
      "green": 6964,
      "Numbers": 6965,
      "Ġxmlrpclib": 6966,
      "Apparently": 6967,
      "Ġguys": 6968,
      "Ġpersonal": 6969,
      "Ġ192": 6970,
      "ĠDecision": 6971,
      "ĠZip": 6972,
      "HTTPServer": 6973,
      "Ġegg": 6974,
      "ĠSuggest": 6975,
      "decimal": 6976,
      "Ġnicer": 6977,
      "600": 6978,
      "=[\"": 6979,
      "Blob": 6980,
      "Library": 6981,
      "Mod": 6982,
      "RU": 6983,
      "Site": 6984,
      "au": 6985,
      "ios": 6986,
      "night": 6987,
      "naive": 6988,
      "Â£": 6989,
      "Ġincorrect": 6990,
      "Ġbesides": 6991,
      "Ġ\"\\\\": 6992,
      "rible": 6993,
      "emo": 6994,
      "ifest": 6995,
      "Ġnotation": 6996,
      "ĠAss": 6997,
      "etri": 6998,
      "ĠHttp": 6999,
      "resol": 7000,
      "opener": 7001,
      "ĠGIL": 7002,
      "Ġtimedelta": 7003,
      "ĠEvaluate": 7004,
      "vals": 7005,
      "Ġquality": 7006,
      "Ġstrateg": 7007,
      "shutil": 7008,
      "Ġbuf": 7009,
      "ternatively": 7010,
      "ampaign": 7011,
      "primes": 7012,
      "Ġtraverse": 7013,
      "Ġopening": 7014,
      "sitive": 7015,
      "Ġoperate": 7016,
      "Ġinstaller": 7017,
      "Ġobtain": 7018,
      "Ġrepresenting": 7019,
      "howto": 7020,
      "ĠThus": 7021,
      "vectors": 7022,
      "rypto": 7023,
      "Ġinvok": 7024,
      "manage": 7025,
      "Ġquoted": 7026,
      "ĠChild": 7027,
      "Ġhashlib": 7028,
      "Ġcombined": 7029,
      "Ġreceives": 7030,
      "Ġmonths": 7031,
      "Ġdealing": 7032,
      "articles": 7033,
      "Ġbenefits": 7034,
      "capit": 7035,
      "Ġfloating": 7036,
      "ĠNULL": 7037,
      "arbage": 7038,
      "Ġopinion": 7039,
      "Ġscenario": 7040,
      "#,": 7041,
      "Am": 7042,
      "Ok": 7043,
      "Out": 7044,
      "Random": 7045,
      "Take": 7046,
      "Trans": 7047,
      "YZ": 7048,
      "bird": 7049,
      "dy": 7050,
      "don": 7051,
      "future": 7052,
      "rstrip": 7053,
      "ĠÃĤ": 7054,
      "reader": 7055,
      "Ġsender": 7056,
      "Ġslice": 7057,
      "Ġface": 7058,
      "Ġfoc": 7059,
      "Ġbtn": 7060,
      "Ġrepro": 7061,
      "ĠIS": 7062,
      "Ġev": 7063,
      "gears": 7064,
      "Ġhar": 7065,
      "ĠPass": 7066,
      "Ġproced": 7067,
      "Ġexper": 7068,
      "ĠCON": 7069,
      "__()</": 7070,
      "Ġorient": 7071,
      "ĠDict": 7072,
      "ĠMax": 7073,
      "elp": 7074,
      "']</": 7075,
      "avg": 7076,
      "Ġrandomly": 7077,
      "Ġintersection": 7078,
      "Ġpartial": 7079,
      "ATION": 7080,
      "cluding": 7081,
      "ials": 7082,
      "Ġdatabases": 7083,
      "ĠConnect": 7084,
      "Document": 7085,
      "Ġgreatly": 7086,
      "Ġsamples": 7087,
      "parts": 7088,
      "Ġlibs": 7089,
      "Ġconfused": 7090,
      "Ġfilters": 7091,
      "domainname": 7092,
      "Install": 7093,
      "Ġnumeric": 7094,
      "813702": 7095,
      "LOGGER": 7096,
      "Ġindependently": 7097,
      "Ġcompatible": 7098,
      "details": 7099,
      "ĠModify": 7100,
      "ĠWikipedia": 7101,
      "Ġvideo": 7102,
      ")\",": 7103,
      "After": 7104,
      "Currently": 7105,
      "Map": 7106,
      "Over": 7107,
      "Say": 7108,
      "\\'": 7109,
      "books": 7110,
      "gers": 7111,
      "gues": 7112,
      "merge": 7113,
      "inv": 7114,
      "Ġsized": 7115,
      "Ġfall": 7116,
      "Ġinvert": 7117,
      "Ġcars": 7118,
      "prec": 7119,
      "Ġforward": 7120,
      "chul": 7121,
      "chdir": 7122,
      "Ġ'--": 7123,
      "ĠĠĠĠĠĠĠĠĠĠčĊ": 7124,
      "ulated": 7125,
      "rices": 7126,
      "quick": 7127,
      "iced": 7128,
      "roman": 7129,
      "Ġmovies": 7130,
      "ĠSV": 7131,
      "ĠAJAX": 7132,
      "forward": 7133,
      "Ġxl": 7134,
      "usage": 7135,
      "lta": 7136,
      "Ġ404": 7137,
      "Ġprivate": 7138,
      "pressions": 7139,
      "ATLAB": 7140,
      "pied": 7141,
      "templates": 7142,
      "Ġsimilarity": 7143,
      "Ġconfigure": 7144,
      "Ġwinner": 7145,
      "Ġautomated": 7146,
      "Second": 7147,
      "Ġnicely": 7148,
      "('/')": 7149,
      "ICOM": 7150,
      "abcdef": 7151,
      "gui": 7152,
      "Struct": 7153,
      "Ġcells": 7154,
      "ierarch": 7155,
      "Ġleading": 7156,
      "Ġperfectly": 7157,
      "Ġconcatenation": 7158,
      "Pool": 7159,
      "Level": 7160,
      "effbot": 7161,
      "Ġcircumst": 7162,
      "chulz": 7163,
      "={'": 7164,
      "AGE": 7165,
      "Even": 7166,
      "Mix": 7167,
      "]}": 7168,
      "bash": 7169,
      "erences": 7170,
      "fla": 7171,
      "glob": 7172,
      "hours": 7173,
      "null": 7174,
      "naps": 7175,
      "pot": 7176,
      "pies": 7177,
      "Ġaffect": 7178,
      "heers": 7179,
      "stats": 7180,
      "Ġfrequencies": 7181,
      "Ġpdb": 7182,
      "Ġhierarch": 7183,
      "edge": 7184,
      "Ġdeleting": 7185,
      "Ġ\"*": 7186,
      "Ġgr": 7187,
      "()?": 7188,
      "embed": 7189,
      "Ġassuming": 7190,
      "Ġorg": 7191,
      "ĠIndex": 7192,
      "pywin": 7193,
      "))]": 7194,
      "irm": 7195,
      "dern": 7196,
      "ellow": 7197,
      "appname": 7198,
      "protocol": 7199,
      "Ġcontact": 7200,
      "ffix": 7201,
      "Ġaddr": 7202,
      "called": 7203,
      "Ġ75": 7204,
      "Ġminimal": 7205,
      "Format": 7206,
      "ĠVector": 7207,
      "ĠĠĠĠĠĠĠčĊ": 7208,
      "Ġproductivity": 7209,
      "Ġoffic": 7210,
      "iterable": 7211,
      "Ġrepresents": 7212,
      "scra": 7213,
      "Ġcleaner": 7214,
      "TypeError": 7215,
      "copyright": 7216,
      "ĠCompute": 7217,
      "button": 7218,
      "Ġreceive": 7219,
      "Ġclearly": 7220,
      "OUR": 7221,
      "Ġtechniques": 7222,
      "Ġsubstitution": 7223,
      "Redirect": 7224,
      "Ġdescribes": 7225,
      "napsack": 7226,
      "*(": 7227,
      "=_": 7228,
      "Box": 7229,
      "Don": 7230,
      "ROR": 7231,
      "Users": 7232,
      "aur": 7233,
      "cp": 7234,
      "holder": 7235,
      "ipping": 7236,
      "lab": 7237,
      "paste": 7238,
      "sn": 7239,
      "soup": 7240,
      "tasks": 7241,
      "viding": 7242,
      "yond": 7243,
      "real": 7244,
      "aling": 7245,
      "esome": 7246,
      "Ġhis": 7247,
      "preter": 7248,
      "isdigit": 7249,
      "Ġdemon": 7250,
      "Ġexclude": 7251,
      "Ġruby": 7252,
      "Ġconcise": 7253,
      "Ġlogs": 7254,
      "ĠStr": 7255,
      "tection": 7256,
      "izz": 7257,
      "ĠGAE": 7258,
      "launch": 7259,
      "ĠRight": 7260,
      "Ġhelper": 7261,
      "Ġfilesystem": 7262,
      "ritical": 7263,
      "Ġlogged": 7264,
      "Ġmanual": 7265,
      "urlparse": 7266,
      "john": 7267,
      "desc": 7268,
      "113": 7269,
      "Ġdecla": 7270,
      "Ġetree": 7271,
      "ĠMyClass": 7272,
      "000000": 7273,
      "Ġ123": 7274,
      "Ġwins": 7275,
      "194": 7276,
      "Ġinterpret": 7277,
      "wxpython": 7278,
      "greSQL": 7279,
      "posts": 7280,
      "Param": 7281,
      "Ġmetaclass": 7282,
      "Ġdirs": 7283,
      "TreeClassifier": 7284,
      "Ġoccurs": 7285,
      "factor": 7286,
      "Ġcapacity": 7287,
      "blogspot": 7288,
      "Ġforeign": 7289,
      "ĠâĢĺ": 7290,
      "Ġfamily": 7291,
      "Ġattempt": 7292,
      "ĠKeyError": 7293,
      "undred": 7294,
      "MODE": 7295,
      "ĠTwisted": 7296,
      "Ġvirtual": 7297,
      "Ġasynchronous": 7298,
      "Option": 7299,
      "KEY": 7300,
      "Ġmistak": 7301,
      "(.+)": 7302,
      "033": 7303,
      ";#": 7304,
      "=-": 7305,
      "Err": 7306,
      "HA": 7307,
      "Import": 7308,
      "Oper": 7309,
      "Pass": 7310,
      "PUT": 7311,
      "Queue": 7312,
      "bra": 7313,
      "cpp": 7314,
      "cron": 7315,
      "eam": 7316,
      "echo": 7317,
      "sq": 7318,
      "yz": 7319,
      "Ġri": 7320,
      "Ġ])": 7321,
      "Ġast": 7322,
      "helper": 7323,
      "eratures": 7324,
      "semb": 7325,
      "Ġed": 7326,
      "vest": 7327,
      "Ġdelimiter": 7328,
      "Ġsections": 7329,
      "Ġcopied": 7330,
      "()):": 7331,
      "ĠCelsius": 7332,
      "Ġran": 7333,
      "Ġmock": 7334,
      "Ġnotice": 7335,
      "Ġfilepath": 7336,
      "ĠWill": 7337,
      "Ġdigest": 7338,
      "ĠDICOM": 7339,
      "Ġfunctional": 7340,
      "elcome": 7341,
      "fered": 7342,
      "Ġcurses": 7343,
      "Ġmultith": 7344,
      "ownload": 7345,
      "INE": 7346,
      "INT": 7347,
      "sites": 7348,
      "Ġentity": 7349,
      "Ġdecrypt": 7350,
      "ĠRewrite": 7351,
      "Ġcorpus": 7352,
      "examples": 7353,
      "Ġblocking": 7354,
      "Ġseparately": 7355,
      "ARN": 7356,
      "grep": 7357,
      "Ġsends": 7358,
      "calendar": 7359,
      "translate": 7360,
      "weights": 7361,
      "ĠWSDL": 7362,
      "Ġsymbols": 7363,
      "Decimal": 7364,
      "urbogears": 7365,
      "Distance": 7366,
      "recursive": 7367,
      "Ġencoun": 7368,
      "Ġchannel": 7369,
      ")'": 7370,
      ".\",": 7371,
      "AIN": 7372,
      "Back": 7373,
      "CO": 7374,
      "Cal": 7375,
      "Look": 7376,
      "OK": 7377,
      "Unicode": 7378,
      "Zip": 7379,
      "`.": 7380,
      "bile": 7381,
      "fidf": 7382,
      "invent": 7383,
      "stm": 7384,
      "Ġcelsius": 7385,
      "arp": 7386,
      "Ġrecipe": 7387,
      "ctx": 7388,
      "Ġthumb": 7389,
      "lored": 7390,
      "Ġstick": 7391,
      "intro": 7392,
      "Ġ(%": 7393,
      "Ġprotot": 7394,
      "Ġprinted": 7395,
      "ĠTABLE": 7396,
      "combin": 7397,
      "anted": 7398,
      "actor": 7399,
      "ĠĠĠĠĠĠĠĠĠĠĠĠĠĠĠĠčĊ": 7400,
      "ĠUsage": 7401,
      "--------------": 7402,
      "neighbors": 7403,
      "Ġkeyboard": 7404,
      "parsing": 7405,
      "Incorrect": 7406,
      "oriented": 7407,
      "matically": 7408,
      "avy": 7409,
      "shuffle": 7410,
      "myList": 7411,
      "Ġexport": 7412,
      "Ġdistinct": 7413,
      "Ġagree": 7414,
      "Ġinterpreted": 7415,
      "ĠTrac": 7416,
      "Ġrot": 7417,
      "eopard": 7418,
      "signed": 7419,
      "ĠComputer": 7420,
      "Ġconfusion": 7421,
      "Ġclosure": 7422,
      "marks": 7423,
      "Ġassignment": 7424,
      "1234567": 7425,
      "metaclass": 7426,
      "alpha": 7427,
      "Two": 7428,
      "asket": 7429,
      "ĠTemplate": 7430,
      "Ġexcellent": 7431,
      "Ġreproduce": 7432,
      "\"?": 7433,
      "70": 7434,
      "=?": 7435,
      "Category": 7436,
      "IX": 7437,
      "MB": 7438,
      "Page": 7439,
      "Screen": 7440,
      "[]": 7441,
      "]['": 7442,
      "audio": 7443,
      "pay": 7444,
      "vari": 7445,
      "ĠĠĠĠĉ": 7446,
      "ĠĠĠĠĠčĊ": 7447,
      "Ġscheme": 7448,
      "Ġie": 7449,
      "Ġpred": 7450,
      "Ġpadding": 7451,
      "threaded": 7452,
      "Ġinverse": 7453,
      "sequences": 7454,
      "Ġbri": 7455,
      "ctime": 7456,
      "alo": 7457,
      "Ġnone": 7458,
      "ĠIE": 7459,
      "chunk": 7460,
      "iles": 7461,
      "ifaces": 7462,
      "peg": 7463,
      "Ġleg": 7464,
      "maging": 7465,
      "ĠMat": 7466,
      "ĠMany": 7467,
      "acc": 7468,
      "ĠĠĠĠĠĠĠĠĠĠĠĠĠĠĠĠĠĠĠĠĠĠĠĠĠ": 7469,
      "ĠĠĠĠĠĠĠĠĠĠĠĠĠĠĠĠĠĠĠĠĠĠĠĠĠĠĠĠ": 7470,
      "ĠOct": 7471,
      "ĠEven": 7472,
      "Ġnewer": 7473,
      "Ġheard": 7474,
      "Ġquit": 7475,
      "Ġreadline": 7476,
      "Ġminimize": 7477,
      "collections": 7478,
      "Ġexpand": 7479,
      "Ġunderscore": 7480,
      "2006": 7481,
      "Ġpacket": 7482,
      "Ġdicts": 7483,
      "ITY": 7484,
      "Doc": 7485,
      "Ġextracting": 7486,
      "SIZE": 7487,
      "magic": 7488,
      "Ġmeta": 7489,
      "Args": 7490,
      "Ġvisual": 7491,
      "Scripts": 7492,
      "Ġalternatives": 7493,
      "Ġclosed": 7494,
      "andidate": 7495,
      "Ġembedding": 7496,
      "zeros": 7497,
      "Ġvolume": 7498,
      "incip": 7499,
      "ĠObviously": 7500,
      "Ġdemonstr": 7501,
      ")\")": 7502,
      "72": 7503,
      "DOM": 7504,
      "Find": 7505,
      "Tr": 7506,
      "];": 7507,
      "bi": 7508,
      "batch": 7509,
      "basic": 7510,
      "dated": 7511,
      "gy": 7512,
      "got": 7513,
      "hip": 7514,
      "imap": 7515,
      "lating": 7516,
      "mask": 7517,
      "uro": 7518,
      "cook": 7519,
      "Ġfire": 7520,
      "Ġinvest": 7521,
      "alt": 7522,
      "Ġease": 7523,
      "Ġemacs": 7524,
      "entities": 7525,
      "Ġdelta": 7526,
      "Ġyes": 7527,
      "ots": 7528,
      "Ġgrow": 7529,
      "Ġcopies": 7530,
      "Ġproc": 7531,
      "Ġprintf": 7532,
      "ĠTEST": 7533,
      "ĠTfidf": 7534,
      "Ġass": 7535,
      "ilder": 7536,
      "ĠDownload": 7537,
      "ĠFahrenheit": 7538,
      "('-": 7539,
      "nominator": 7540,
      "irs": 7541,
      "Ġclassmethod": 7542,
      "usters": 7543,
      "ĠModule": 7544,
      "ĠMAC": 7545,
      "Ġkernel": 7546,
      "ĠRR": 7547,
      "Ġenjo": 7548,
      "Ġaccessed": 7549,
      "matic": 7550,
      "Ġsolving": 7551,
      "Ġoverwrite": 7552,
      "Ġpointer": 7553,
      "2021": 7554,
      "Ġexecutes": 7555,
      "Ġtotally": 7556,
      "Ġimmutable": 7557,
      "Ġideal": 7558,
      "Ġaccessing": 7559,
      "ĠProject": 7560,
      "SION": 7561,
      "Ġcaref": 7562,
      "Ġplaying": 7563,
      "Ġtokenize": 7564,
      "Ġ``": 7565,
      "Ġinsertion": 7566,
      "Ġdivisors": 7567,
      "Ġturned": 7568,
      "handlers": 7569,
      "threads": 7570,
      "threading": 7571,
      "Ġreports": 7572,
      "Ġentirely": 7573,
      "Ġindicate": 7574,
      "versal": 7575,
      "guide": 7576,
      "Should": 7577,
      "Ġmonkey": 7578,
      "Ġmiddleware": 7579,
      "steps": 7580,
      "Ġencountered": 7581,
      "(%": 7582,
      "/<": 7583,
      "63": 7584,
      "73": 7585,
      "NG": 7586,
      "NN": 7587,
      "NOT": 7588,
      "PS": 7589,
      "Version": 7590,
      "bisect": 7591,
      "dst": 7592,
      "each": 7593,
      "gines": 7594,
      "hl": 7595,
      "jk": 7596,
      "there": 7597,
      "tdb": 7598,
      "vim": 7599,
      "Ġbr": 7600,
      "Ġble": 7601,
      "Ġdtype": 7602,
      "Ġanonymous": 7603,
      "entry": 7604,
      "isfile": 7605,
      "ceed": 7606,
      "Ġbelong": 7607,
      "Ġbeyond": 7608,
      "Ġ199": 7609,
      "ĠCSV": 7610,
      "Ġsock": 7611,
      "Ġ2000": 7612,
      "ssh": 7613,
      "ĠDate": 7614,
      "Ġresource": 7615,
      "(\"&": 7616,
      "Ġjo": 7617,
      "mlink": 7618,
      "Ġpoly": 7619,
      "ĠOOP": 7620,
      "])):": 7621,
      "Ġformats": 7622,
      "Context": 7623,
      "NTI": 7624,
      "Engine": 7625,
      "Ġhttplib": 7626,
      "ĠOSX": 7627,
      "ĠPerhaps": 7628,
      "Ġupdating": 7629,
      "Ġthrows": 7630,
      "Ġspecifying": 7631,
      "ĠOnce": 7632,
      "ANG": 7633,
      "Ġcommunic": 7634,
      "Ġraises": 7635,
      "communicate": 7636,
      "Ġfavorite": 7637,
      "Auto": 7638,
      ",))": 7639,
      "AS": 7640,
      "Ag": 7641,
      "Alice": 7642,
      "BT": 7643,
      "ILE": 7644,
      "System": 7645,
      "]],": 7646,
      "frequencies": 7647,
      "lm": 7648,
      "numpy": 7649,
      "ple": 7650,
      "}\".": 7651,
      "rex": 7652,
      "reviews": 7653,
      "Ġfly": 7654,
      "Ġflist": 7655,
      "Ġpsyco": 7656,
      "Ġwww": 7657,
      "thost": 7658,
      "Ġrect": 7659,
      "urses": 7660,
      "Ġdependent": 7661,
      "orts": 7662,
      "odo": 7663,
      "emale": 7664,
      "ĠTree": 7665,
      "Ġlost": 7666,
      "Ġnoticed": 7667,
      "Ġleave": 7668,
      "nology": 7669,
      "Ġdataframe": 7670,
      "ĠHas": 7671,
      "ĠMATLAB": 7672,
      "Ġworkaround": 7673,
      "ĠLoop": 7674,
      "Ġvert": 7675,
      "well": 7676,
      "aves": 7677,
      "Ġintermediate": 7678,
      "answer": 7679,
      "Ġendpoint": 7680,
      "Ġopened": 7681,
      "ĠVim": 7682,
      "INTER": 7683,
      "ĠStandard": 7684,
      "erest": 7685,
      "Exit": 7686,
      "Ġsales": 7687,
      "Ġorigin": 7688,
      "Ġfiltering": 7689,
      "ĠEnglish": 7690,
      "ditional": 7691,
      "DBC": 7692,
      "celsius": 7693,
      "Ġdecorators": 7694,
      "Ġanalyze": 7695,
      "Ġpractical": 7696,
      "Ġauthenticate": 7697,
      "Ġplanning": 7698,
      "CONTENT": 7699,
      "Load": 7700,
      "Ġcompatibility": 7701,
      "Ġcrash": 7702,
      "kbd": 7703,
      "rooms": 7704,
      "ĠFoundation": 7705,
      "Ġofficial": 7706,
      "alogs": 7707,
      "\"\\": 7708,
      "\"][": 7709,
      "Div": 7710,
      "Fe": 7711,
      "Grid": 7712,
      "Mo": 7713,
      "Phone": 7714,
      "Right": 7715,
      "[\\": 7716,
      "dm": 7717,
      "gwin": 7718,
      "implement": 7719,
      "jax": 7720,
      "then": 7721,
      "uce": 7722,
      "void": 7723,
      "zA": 7724,
      "Ġtax": 7725,
      "course": 7726,
      "lest": 7727,
      "Ġcd": 7728,
      "Ġcut": 7729,
      "preprocessing": 7730,
      "under": 7731,
      "rian": 7732,
      "rift": 7733,
      "Ġgain": 7734,
      "Ġlack": 7735,
      "ĠCar": 7736,
      "Ġmoves": 7737,
      "ĠSy": 7738,
      "Ġmaze": 7739,
      "anges": 7740,
      "(\"-": 7741,
      "resources": 7742,
      "ĠNet": 7743,
      "tell": 7744,
      "ĠMark": 7745,
      "console": 7746,
      "ĠEnd": 7747,
      "Ġ48": 7748,
      "Ġhear": 7749,
      "Ġserious": 7750,
      "cluster": 7751,
      "Ġ:)": 7752,
      "osen": 7753,
      "Ġperforms": 7754,
      "fitness": 7755,
      "statement": 7756,
      "ĠProblem": 7757,
      "Ġlocalhost": 7758,
      "Ġquicksort": 7759,
      "ĠSoftware": 7760,
      "Ġgroupby": 7761,
      "ORD": 7762,
      "Ġinitializ": 7763,
      "Ġinserted": 7764,
      "Ġmetadata": 7765,
      "Ġdepend": 7766,
      "mallest": 7767,
      "ĠParser": 7768,
      "Copy": 7769,
      "ĠDecorator": 7770,
      "Ġlocally": 7771,
      "normali": 7772,
      "Price": 7773,
      "square": 7774,
      "Ġtutorials": 7775,
      "Template": 7776,
      "Ġcookies": 7777,
      "Ġvirtualenv": 7778,
      "Ġsvn": 7779,
      "ictionary": 7780,
      "ĠANY": 7781,
      "credits": 7782,
      "abcdefg": 7783,
      "%%": 7784,
      "'\"": 7785,
      "'{": 7786,
      "(\",": 7787,
      ".',": 7788,
      "41": 7789,
      "43": 7790,
      "434": 7791,
      "Gen": 7792,
      "Imagine": 7793,
      "Jython": 7794,
      "NE": 7795,
      "bet": 7796,
      "rule": 7797,
      "sr": 7798,
      "Ġscipy": 7799,
      "Ġipython": 7800,
      "Ġps": 7801,
      "Ġpow": 7802,
      "Ġplus": 7803,
      "ancy": 7804,
      "Ġnul": 7805,
      "Ġhi": 7806,
      "Ġhor": 7807,
      "Ġhour": 7808,
      "ĠPEP": 7809,
      "Ġsep": 7810,
      "Ġgarbage": 7811,
      "ĠClient": 7812,
      "ĠTri": 7813,
      "ĠTHE": 7814,
      "__,": 7815,
      "('&": 7816,
      "nodes": 7817,
      "updf": 7818,
      "prob": 7819,
      "timedelta": 7820,
      "Ġcompared": 7821,
      "...\"": 7822,
      "render": 7823,
      "Ġspawn": 7824,
      "phi": 7825,
      "([])": 7826,
      "Ġbases": 7827,
      "INFO": 7828,
      "authentic": 7829,
      "2009": 7830,
      "ĠDelete": 7831,
      "Ġmembers": 7832,
      "crete": 7833,
      "ToMany": 7834,
      "Ġdetail": 7835,
      "OME": 7836,
      "Ġpositions": 7837,
      "contents": 7838,
      "Ġswap": 7839,
      "Ġpresence": 7840,
      "Ġlimitations": 7841,
      "Ġidx": 7842,
      "Ġcleaned": 7843,
      "ĠWhile": 7844,
      "Sometimes": 7845,
      "Ġparenthe": 7846,
      "unctools": 7847,
      "Ġhappened": 7848,
      "matching": 7849,
      "Ġguid": 7850,
      "Ġpredicted": 7851,
      "softmax": 7852,
      "egative": 7853,
      "mono": 7854,
      "menu": 7855,
      "ĠSomething": 7856,
      "Ġdescribe": 7857,
      "Ġstudents": 7858,
      "Ġindicates": 7859,
      "Computer": 7860,
      "Tags": 7861,
      "gresql": 7862,
      "Ġreliable": 7863,
      "pecifically": 7864,
      "Ġblend": 7865,
      "\"/&": 7866,
      "/*": 7867,
      "BASIC": 7868,
      "Counter": 7869,
      "Cvm": 7870,
      "DD": 7871,
      "Dep": 7872,
      "DIR": 7873,
      "Email": 7874,
      "RC": 7875,
      "Rot": 7876,
      "Total": 7877,
      "[,": 7878,
      "elif": 7879,
      "four": 7880,
      "gz": 7881,
      "hack": 7882,
      "kw": 7883,
      "mang": 7884,
      "mssql": 7885,
      "sca": 7886,
      "tick": 7887,
      "war": 7888,
      "warning": 7889,
      "ye": 7890,
      "}'.": 7891,
      "Ġclock": 7892,
      "anit": 7893,
      "Ġbundle": 7894,
      "Ġreq": 7895,
      "mechan": 7896,
      "itter": 7897,
      "Ġdeep": 7898,
      "Ġ\"\".": 7899,
      "Ġcoefficient": 7900,
      "quent": 7901,
      "Ġexe": 7902,
      "001": 7903,
      "ĠSU": 7904,
      "ĠSend": 7905,
      "ĠStop": 7906,
      "pyw": 7907,
      "ĠFLOGGER": 7908,
      "Ġchosen": 7909,
      "ĠHE": 7910,
      "ĠMin": 7911,
      "ĠMight": 7912,
      "ĠEND": 7913,
      "Ġcomputes": 7914,
      "Ġnews": 7915,
      "Ġcaller": 7916,
      "ĠXPath": 7917,
      "define": 7918,
      "errors": 7919,
      "dentials": 7920,
      "processor": 7921,
      "Ġtempfile": 7922,
      "symb": 7923,
      "2010": 7924,
      "ĠForm": 7925,
      "Ġapproxim": 7926,
      "DEBUG": 7927,
      "Ġintegrate": 7928,
      "Ġlocals": 7929,
      "FileName": 7930,
      "Ġputs": 7931,
      "Ġseparator": 7932,
      "configure": 7933,
      "ccuracy": 7934,
      "Ġcopying": 7935,
      "medium": 7936,
      "ModelAdmin": 7937,
      "Ġhosts": 7938,
      "ĠAndroid": 7939,
      "center": 7940,
      "Ġstopwords": 7941,
      "abcd": 7942,
      "ĠZIP": 7943,
      "installing": 7944,
      "uppercase": 7945,
      "norm": 7946,
      "Sorted": 7947,
      "aises": 7948,
      "Ġintrodu": 7949,
      "identifier": 7950,
      "Ġreplaced": 7951,
      "Ġignore": 7952,
      "operator": 7953,
      "Ġcombine": 7954,
      "anoi": 7955,
      "Ġconsecutive": 7956,
      "Ġcmupdf": 7957,
      "atisf": 7958,
      "Cvmfs": 7959,
      "69": 7960,
      "Bu": 7961,
      "CE": 7962,
      "Cheers": 7963,
      "Found": 7964,
      "MM": 7965,
      "]+)": 7966,
      "fahrenheit": 7967,
      "when": 7968,
      "xpath": 7969,
      "Ġ----------------------------------------------------------------": 7970,
      "Ġvectors": 7971,
      "Ġsge": 7972,
      "Ġscal": 7973,
      "stic": 7974,
      "thme": 7975,
      "Ġcra": 7976,
      "Ġctx": 7977,
      "Ġrealized": 7978,
      "although": 7979,
      "rock": 7980,
      "ĠIdeally": 7981,
      "Ġeclipse": 7982,
      "Ġhouse": 7983,
      "Ġhuman": 7984,
      "ric": 7985,
      "owel": 7986,
      "httplib": 7987,
      "Ġusual": 7988,
      "strument": 7989,
      "ĠDOM": 7990,
      "omas": 7991,
      "ĠMicrosoft": 7992,
      "const": 7993,
      "Ġshape": 7994,
      "keyword": 7995,
      "movies": 7996,
      "Ġunnecessary": 7997,
      "account": 7998,
      "Ġcompress": 7999,
      "Ġtwee": 8000,
      "minutes": 8001,
      "minidom": 8002,
      "1024": 8003,
      "myapp": 8004,
      "Ġcalc": 8005,
      "Ġreadability": 8006,
      "Ġcols": 8007,
      "Ġargparse": 8008,
      "primary": 8009,
      "Status": 8010,
      "cols": 8011,
      "Ġdocumented": 8012,
      "ĠHTMLDecorator": 8013,
      "ITE": 8014,
      "Ġsuggestion": 8015,
      "ĠApple": 8016,
      "ĠGetting": 8017,
      "connector": 8018,
      "ropout": 8019,
      "Ġgui": 8020,
      "Ġoperators": 8021,
      "Ġmanaged": 8022,
      "Order": 8023,
      "Ġfailure": 8024,
      "sendmail": 8025,
      "Ġscreenshot": 8026,
      "Instead": 8027,
      "Ġsaving": 8028,
      "Ġremainder": 8029,
      "Ġcompiling": 8030,
      "Ġcenter": 8031,
      "character": 8032,
      "Ġreferen": 8033,
      "squared": 8034,
      ")*(": 8035,
      "ĠPredict": 8036,
      "records": 8037,
      "optimizer": 8038,
      "Ġcrawler": 8039,
      "ĠLinkedList": 8040,
      "ĠEmployee": 8041,
      "ignore": 8042,
      "Ġversus": 8043,
      "Ġsecure": 8044,
      "resolver": 8045,
      "thmetic": 8046,
      "Ġtweepy": 8047,
      "79": 8048,
      ";',": 8049,
      ";{{": 8050,
      "Ab": 8051,
      "Database": 8052,
      "EGER": 8053,
      "Hand": 8054,
      "Host": 8055,
      "Linux": 8056,
      "Main": 8057,
      "Raises": 8058,
      "SU": 8059,
      "Session": 8060,
      "[(": 8061,
      "big": 8062,
      "hook": 8063,
      "pie": 8064,
      "rss": 8065,
      "same": 8066,
      "vation": 8067,
      "Ġldap": 8068,
      "iny": 8069,
      "rely": 8070,
      "Ġsqrt": 8071,
      "Ġsilly": 8072,
      "atar": 8073,
      "coo": 8074,
      "Ġcmp": 8075,
      "Ġcandidate": 8076,
      "Ġmk": 8077,
      "utc": 8078,
      "gethost": 8079,
      "Ġ'))": 8080,
      "Ġbeautiful": 8081,
      "ried": 8082,
      "Ġonto": 8083,
      "ĠCDATA": 8084,
      "refer": 8085,
      "Ġnear": 8086,
      "ĠAge": 8087,
      "Ġsuspect": 8088,
      "ĠDR": 8089,
      "Ġapplied": 8090,
      "Ġjython": 8091,
      "Ġmystring": 8092,
      "soap": 8093,
      "licy": 8094,
      "Ġpoor": 8095,
      "moid": 8096,
      "prop": 8097,
      "problem": 8098,
      "viation": 8099,
      "alise": 8100,
      "Ġengines": 8101,
      "shi": 8102,
      "trieve": 8103,
      "Ġready": 8104,
      "Ġoverall": 8105,
      "ledge": 8106,
      "ternet": 8107,
      "Ġminute": 8108,
      "120": 8109,
      "Ġcontainer": 8110,
      "latin": 8111,
      "Ġsimulate": 8112,
      "Console": 8113,
      "Ġsingleton": 8114,
      "docx": 8115,
      "Encode": 8116,
      "unky": 8117,
      "Ġparticularly": 8118,
      "ccording": 8119,
      "ynamic": 8120,
      "Ġworse": 8121,
      "Ġcalculator": 8122,
      "Ġcalculating": 8123,
      "Ġconnected": 8124,
      "Ġterminate": 8125,
      "mbedding": 8126,
      "pipfile": 8127,
      "Based": 8128,
      "OUNT": 8129,
      "Ġstrict": 8130,
      "Ġsaves": 8131,
      "Subject": 8132,
      "Ġsqlalchemy": 8133,
      "Ġnormalized": 8134,
      "Ġdependency": 8135,
      "Ġfills": 8136,
      "ĠINTEGER": 8137,
      "clusion": 8138,
      "mkdir": 8139,
      "cfg": 8140,
      "Ġearlier": 8141,
      "________": 8142,
      "widgets": 8143,
      "Ġestab": 8144,
      "Ġimaplib": 8145,
      "Ġsurprised": 8146,
      "issue": 8147,
      "Ġstrategy": 8148,
      "Ġprocedure": 8149,
      "Ġmultithreaded": 8150,
      "';": 8151,
      "2000": 8152,
      "51": 8153,
      ">*": 8154,
      "COL": 8155,
      "DU": 8156,
      "LC": 8157,
      "Long": 8158,
      "PL": 8159,
      "Scaler": 8160,
      "YOUR": 8161,
      "blank": 8162,
      "done": 8163,
      "flist": 8164,
      "ln": 8165,
      "mul": 8166,
      "occur": 8167,
      "tab": 8168,
      "udo": 8169,
      "zy": 8170,
      "Ġari": 8171,
      "redirect": 8172,
      "onus": 8173,
      "Ġwalk": 8174,
      "Ġcube": 8175,
      "lid": 8176,
      "Ġmd": 8177,
      "means": 8178,
      "Ġeff": 8179,
      "Ġ\"</": 8180,
      "Ġ($": 8181,
      "Ġwide": 8182,
      "Ġdom": 8183,
      "=\"\")": 8184,
      "Ġlcs": 8185,
      "Ġluck": 8186,
      "andbox": 8187,
      "Ġalter": 8188,
      "Ġchain": 8189,
      "');": 8190,
      "omodo": 8191,
      "usable": 8192,
      "ĠLike": 8193,
      "They": 8194,
      "Ġsyn": 8195,
      "Ġparses": 8196,
      "pocoo": 8197,
      "parame": 8198,
      "arer": 8199,
      "Ġknows": 8200,
      "Ġknowledge": 8201,
      "Ġsummar": 8202,
      "bert": 8203,
      "Ġfeels": 8204,
      "############": 8205,
      "Protocol": 8206,
      "Ġbreaks": 8207,
      "Ġsimplicity": 8208,
      "++.": 8209,
      "Ġbinaries": 8210,
      "somefile": 8211,
      "ĠKeep": 8212,
      "Ġsplitting": 8213,
      "READ": 8214,
      "plorer": 8215,
      "UTC": 8216,
      "alysis": 8217,
      "Ġattached": 8218,
      "Ġadministr": 8219,
      "OPT": 8220,
      "Ġtells": 8221,
      "Ġconstructs": 8222,
      "corpus": 8223,
      "EXE": 8224,
      "Ġcentroid": 8225,
      "editor": 8226,
      "Ġtreat": 8227,
      "Ġconcatenate": 8228,
      "Activity": 8229,
      "Assert": 8230,
      "33333333": 8231,
      "ĠIFs": 8232,
      "ktips": 8233,
      "ĠService": 8234,
      "globals": 8235,
      "Ġdrag": 8236,
      "history": 8237,
      "]?[": 8238,
      "twistedmatrix": 8239,
      "Ġinfinite": 8240,
      "lapsed": 8241,
      "malektips": 8242,
      "Ġannoying": 8243,
      "ĠTfidfVectorizer": 8244,
      "%(": 8245,
      "+\"": 8246,
      "/',": 8247,
      ";,": 8248,
      "={}": 8249,
      ">{%": 8250,
      "BA": 8251,
      "Hope": 8252,
      "Most": 8253,
      "Rep": 8254,
      "Top": 8255,
      "TIME": 8256,
      "XYZ": 8257,
      "evaluate": 8258,
      "easy": 8259,
      "hy": 8260,
      "hic": 8261,
      "note": 8262,
      "ucli": 8263,
      "xe": 8264,
      "xls": 8265,
      "yy": 8266,
      "Ġtiming": 8267,
      "inja": 8268,
      "Ġsess": 8269,
      "Ġscaler": 8270,
      "Ġ<<": 8271,
      "era": 8272,
      "sequent": 8273,
      "Ġbench": 8274,
      "allen": 8275,
      "utable": 8276,
      "loom": 8277,
      "Ġevi": 8278,
      "Ġhundred": 8279,
      "Ġfork": 8280,
      "Ġproviding": 8281,
      "=\"/": 8282,
      "Ġlang": 8283,
      "getElement": 8284,
      "getLogger": 8285,
      "ĠSci": 8286,
      "anging": 8287,
      "nom": 8288,
      "Ġresp": 8289,
      "ĠMon": 8290,
      "Ġshown": 8291,
      "Ġknapsack": 8292,
      "ĠEvery": 8293,
      "ĠLanguage": 8294,
      "ĠRGB": 8295,
      "reduce": 8296,
      "setuptools": 8297,
      "traction": 8298,
      "poss": 8299,
      "paths": 8300,
      "Ġbool": 8301,
      "ERROR": 8302,
      "works": 8303,
      "Ġsupplied": 8304,
      "2011": 8305,
      "Ġevenly": 8306,
      "Reader": 8307,
      "Ġgrep": 8308,
      "[:]": 8309,
      "contain": 8310,
      "Ġlongitude": 8311,
      "ffici": 8312,
      "Ġputting": 8313,
      "Ġextracts": 8314,
      "scripts": 8315,
      "249": 8316,
      "wxPython": 8317,
      "287": 8318,
      "xyz": 8319,
      "ditionally": 8320,
      "manager": 8321,
      "Ġoccurrence": 8322,
      "regular": 8323,
      "ĠArgument": 8324,
      "Ġincreasing": 8325,
      "Ġassigned": 8326,
      "HEAD": 8327,
      "cached": 8328,
      "multiple": 8329,
      "black": 8330,
      "ĠResult": 8331,
      "Ġplugins": 8332,
      "Ġcarry": 8333,
      "irectory": 8334,
      "Ġsnip": 8335,
      "Ġdiscovered": 8336,
      "Ġconstraints": 8337,
      "Ġliteral": 8338,
      "castsDict": 8339,
      "Ġstrongly": 8340,
      "Ġtemporary": 8341,
      "Positive": 8342,
      "Ġnormally": 8343,
      "ĠDecisionTreeClassifier": 8344,
      "Ġharder": 8345,
      "Ġhierarchy": 8346,
      "stmts": 8347,
      "+'": 8348,
      "+',": 8349,
      "Ctrl": 8350,
      "Ideally": 8351,
      "JSON": 8352,
      "KL": 8353,
      "LR": 8354,
      "PYTHONPATH": 8355,
      "categories": 8356,
      "difference": 8357,
      "mime": 8358,
      "xlabel": 8359,
      "Ġrid": 8360,
      "ret": 8361,
      "dean": 8362,
      "Ġsli": 8363,
      "Ġiron": 8364,
      "leet": 8365,
      "lict": 8366,
      "Ġmicro": 8367,
      "Ġborder": 8368,
      "Ġblah": 8369,
      "Ġrename": 8370,
      "Ġreset": 8371,
      "Ġrelying": 8372,
      "allow": 8373,
      "prev": 8374,
      "ĠisPrime": 8375,
      "uri": 8376,
      "Ġ\"\")": 8377,
      "rived": 8378,
      "Ġ(&": 8379,
      "Ġgave": 8380,
      "Ġgrate": 8381,
      "quant": 8382,
      "tpass": 8383,
      "Ġratio": 8384,
      "ety": 8385,
      "maked": 8386,
      "ĠFree": 8387,
      "tep": 8388,
      "ĠMan": 8389,
      "series": 8390,
      "formance": 8391,
      "ĠBasic": 8392,
      "proj": 8393,
      "aster": 8394,
      "Ġtwisted": 8395,
      "Ġsubclasses": 8396,
      "Ġpermission": 8397,
      "apter": 8398,
      "Ġwasn": 8399,
      "Ġpasswords": 8400,
      "Ġpasswd": 8401,
      "Ġoverload": 8402,
      "plained": 8403,
      "alization": 8404,
      "111": 8405,
      "Ġ./": 8406,
      "2004": 8407,
      "Ġ{}'.": 8408,
      "LETE": 8409,
      "Progress": 8410,
      "subject": 8411,
      "backs": 8412,
      "controller": 8413,
      "ializer": 8414,
      "dence": 8415,
      "ĠĠĠĠĠĠĠĠĠĠĠĠĠĠĠĠĠĠĠĠĠĠĠĠĠĠĠĠĠĠĠĠĠĠĠĠĠĠĠĠĠĠĠ": 8416,
      "SIX": 8417,
      "vars": 8418,
      "Ġsignals": 8419,
      "olding": 8420,
      "ĠTesting": 8421,
      "Ġrecommendations": 8422,
      "whats": 8423,
      "ĠIPC": 8424,
      "Ġattack": 8425,
      "Argument": 8426,
      "Ġturns": 8427,
      "ĠChange": 8428,
      "encoded": 8429,
      "patterns": 8430,
      "lisher": 8431,
      "Ġtypical": 8432,
      "fetchone": 8433,
      "Header": 8434,
      "CREATE": 8435,
      ";!--": 8436,
      "Ġrestricted": 8437,
      "family": 8438,
      "mazing": 8439,
      "Ġbusiness": 8440,
      "Ġsearches": 8441,
      "Ġawkward": 8442,
      "Ġoriented": 8443,
      "ĠDictObj": 8444,
      "Ġcircumstances": 8445,
      "uclidean": 8446,
      "makedirs": 8447,
      ".%": 8448,
      ">//": 8449,
      "?)</": 8450,
      "Accuracy": 8451,
      "Could": 8452,
      "DI": 8453,
      "Emp": 8454,
      "Fail": 8455,
      "LIST": 8456,
      "Loop": 8457,
      "Maybe": 8458,
      "SD": 8459,
      "Yay": 8460,
      "[[": 8461,
      "bas": 8462,
      "boost": 8463,
      "bayes": 8464,
      "fz": 8465,
      "mmat": 8466,
      "push": 8467,
      "ylabel": 8468,
      "zard": 8469,
      "Ġapt": 8470,
      "Ġslug": 8471,
      "atin": 8472,
      "Ġill": 8473,
      "Ġpprint": 8474,
      "Ġws": 8475,
      "Ġcave": 8476,
      "anum": 8477,
      "Ġblob": 8478,
      "Ġdelay": 8479,
      "chr": 8480,
      "Ġ10000": 8481,
      "ĠCurrently": 8482,
      "__()": 8483,
      "Ġconv": 8484,
      "Ġlisten": 8485,
      "Ġneither": 8486,
      "ĠSSH": 8487,
      "ĠAccess": 8488,
      "ĠWIT": 8489,
      "Ġsuc": 8490,
      "Ġareas": 8491,
      "Ġ300": 8492,
      "team": 8493,
      "ipython": 8494,
      "ĠGmail": 8495,
      "apps": 8496,
      "ĠLIN": 8497,
      "readthe": 8498,
      "ĠRever": 8499,
      "Ġ*.": 8500,
      "ciate": 8501,
      "Ġsym": 8502,
      "Ġheap": 8503,
      "currency": 8504,
      "...]": 8505,
      "dicts": 8506,
      "avig": 8507,
      "shift": 8508,
      "Ġ})": 8509,
      "ously": 8510,
      "splitext": 8511,
      "swer": 8512,
      "both": 8513,
      "lashes": 8514,
      "0008": 8515,
      "PIO": 8516,
      "Ġwhereas": 8517,
      "Ġtrig": 8518,
      "cludes": 8519,
      "ĠRequest": 8520,
      "charge": 8521,
      "who": 8522,
      "temperature": 8523,
      "Ġdownloaded": 8524,
      "ĠDocument": 8525,
      "ARRA": 8526,
      "svm": 8527,
      "scr": 8528,
      "Ġsockets": 8529,
      "ĠSelect": 8530,
      "Ġguessing": 8531,
      "downloads": 8532,
      "endswith": 8533,
      "factorial": 8534,
      "Ġclosing": 8535,
      "Means": 8536,
      "SERVER": 8537,
      "ĠSplitting": 8538,
      "Ġemployees": 8539,
      "Ġfitness": 8540,
      "Ġencryption": 8541,
      "Ġtypically": 8542,
      "smtp": 8543,
      "Ġrepeated": 8544,
      "99999999": 8545,
      "wrap": 8546,
      "XXXX": 8547,
      "exceptions": 8548,
      "Ġstraightforward": 8549,
      "Default": 8550,
      "ĠAuto": 8551,
      "Ġregarding": 8552,
      "tweet": 8553,
      "Ġpublished": 8554,
      "ossible": 8555,
      "attach": 8556,
      "ĠRegular": 8557,
      "aussian": 8558,
      "ĠRandomForestClassifier": 8559,
      "Ġorgan": 8560,
      "Ġeffort": 8561,
      "readthedocs": 8562,
      "890": 8563,
      ":')": 8564,
      ":],": 8565,
      ">%": 8566,
      ">',": 8567,
      "Average": 8568,
      "ASCII": 8569,
      "Core": 8570,
      "Close": 8571,
      "DLL": 8572,
      "IronPython": 8573,
      "Mark": 8574,
      "Part": 8575,
      "Wait": 8576,
      "_.": 8577,
      "bt": 8578,
      "jar": 8579,
      "ku": 8580,
      "ned": 8581,
      "ratio": 8582,
      "sd": 8583,
      "since": 8584,
      "Ġì": 8585,
      "Ġsco": 8586,
      "Ġsed": 8587,
      "orth": 8588,
      "Ġfahrenheit": 8589,
      "Ġpeek": 8590,
      "eno": 8591,
      "english": 8592,
      "Ġmer": 8593,
      "memb": 8594,
      "mps": 8595,
      "Ġelapsed": 8596,
      "edora": 8597,
      "Ġ\"'": 8598,
      "Ġ\"\",": 8599,
      "Ġglade": 8600,
      "cker": 8601,
      "adly": 8602,
      "ĠTake": 8603,
      "getvar": 8604,
      "httpd": 8605,
      "Ġlose": 8606,
      "Ġmodern": 8607,
      "ĠInternet": 8608,
      "opython": 8609,
      "ĠMessage": 8610,
      "Ġadapt": 8611,
      "ĠLook": 8612,
      "ĠRed": 8613,
      "These": 8614,
      "ĠUN": 8615,
      "pointer": 8616,
      "parameters": 8617,
      "Ġurlopen": 8618,
      "Ġpriority": 8619,
      "INET": 8620,
      "Ġiterators": 8621,
      "Ġscroll": 8622,
      "Ġregistr": 8623,
      "Ġcompleted": 8624,
      "success": 8625,
      "Tools": 8626,
      "virt": 8627,
      "Ġsuggests": 8628,
      "standard": 8629,
      "speed": 8630,
      "Ġcomputers": 8631,
      "Ġidle": 8632,
      "directories": 8633,
      "ĠIPv": 8634,
      "Ġconflict": 8635,
      "Ġnecessarily": 8636,
      "writer": 8637,
      "ĠNumbers": 8638,
      "mensions": 8639,
      "plus": 8640,
      "changed": 8641,
      "Ġeggs": 8642,
      "Ġconsidering": 8643,
      "hexdigest": 8644,
      "Ġerrno": 8645,
      "Ġbracket": 8646,
      "tweets": 8647,
      "purpose": 8648,
      "Ġprincip": 8649,
      "ĠConfigParser": 8650,
      "Neighbors": 8651,
      "Ġspreadsheet": 8652,
      "Ġclarify": 8653,
      "Ġgoogled": 8654,
      ")(": 8655,
      "/>": 8656,
      "=\\\"": 8657,
      "Banana": 8658,
      "COM": 8659,
      "EY": 8660,
      "Fact": 8661,
      "Kit": 8662,
      "PT": 8663,
      "Palindrome": 8664,
      "PORT": 8665,
      "RGB": 8666,
      "Sm": 8667,
      "Ver": 8668,
      "[['": 8669,
      "]=": 8670,
      "_='": 8671,
      "``": 8672,
      "eq": 8673,
      "ners": 8674,
      "oe": 8675,
      "power": 8676,
      "sender": 8677,
      "Â¤": 8678,
      "Ġ)</": 8679,
      "review": 8680,
      "Ġflat": 8681,
      "Ġfcnt": 8682,
      "Ġpipes": 8683,
      "ensitive": 8684,
      "ingly": 8685,
      "lig": 8686,
      "Ġbg": 8687,
      "Ġrem": 8688,
      "Ġreload": 8689,
      "Ġredistrib": 8690,
      "Ġdumb": 8691,
      "locale": 8692,
      "lots": 8693,
      "pres": 8694,
      "Ġ#----------------------------------------------------------------": 8695,
      "uly": 8696,
      "Ġwik": 8697,
      "estion": 8698,
      "ĠCall": 8699,
      "assuming": 8700,
      "Ġ250": 8701,
      "Ġnotep": 8702,
      "ĠShow": 8703,
      "ĠInsert": 8704,
      "ĠAc": 8705,
      "ĠFort": 8706,
      "ĠFilter": 8707,
      "('''": 8708,
      "reatest": 8709,
      "ĠNT": 8710,
      "ĠGu": 8711,
      "activ": 8712,
      "Ġrelation": 8713,
      "Ġunix": 8714,
      "Ġ52": 8715,
      "ĠOf": 8716,
      "asting": 8717,
      "Ġupgrade": 8718,
      "will": 8719,
      "Ġcommer": 8720,
      "Ġprecise": 8721,
      "wered": 8722,
      "Ġ101": 8723,
      "Ġsubsequent": 8724,
      "Ġ81": 8725,
      "sentences": 8726,
      "ĠVariable": 8727,
      "Ġzone": 8728,
      "Ġbackwards": 8729,
      "forever": 8730,
      "Ġwondered": 8731,
      "Ġdownside": 8732,
      "Ġspecification": 8733,
      "modified": 8734,
      "speech": 8735,
      "Ġtokenizer": 8736,
      "Ġpreferably": 8737,
      "Ġfloats": 8738,
      "generic": 8739,
      "8859": 8740,
      "Ġfigures": 8741,
      "Parse": 8742,
      "ICE": 8743,
      "validation": 8744,
      "solution": 8745,
      "events": 8746,
      "Ġ'/'": 8747,
      "Unfortunately": 8748,
      "region": 8749,
      "Mean": 8750,
      "IGHT": 8751,
      "ĠOption": 8752,
      "Once": 8753,
      "Ġconditional": 8754,
      "Ġpractices": 8755,
      "Ġeffects": 8756,
      "DateTime": 8757,
      "metadata": 8758,
      "ĠQuery": 8759,
      "Ġflexibility": 8760,
      "Ġ;-": 8761,
      "âĢĻ,": 8762,
      "ĠMultiple": 8763,
      "Ġclearer": 8764,
      "ĠOtherwise": 8765,
      "Ġexperiment": 8766,
      "Ġinverted": 8767,
      "fficiency": 8768,
      "Ġfcntl": 8769,
      "Ġnotepad": 8770,
      "!)": 8771,
      "/$',": 8772,
      ">^": 8773,
      "DR": 8774,
      "FUN": 8775,
      "Game": 8776,
      "Mem": 8777,
      "Nee": 8778,
      "Negative": 8779,
      "wp": 8780,
      "zilla": 8781,
      "Ġ\\\\": 8782,
      "inner": 8783,
      "Ġactions": 8784,
      "dependent": 8785,
      "Ġsizes": 8786,
      "Ġir": 8787,
      "Ġign": 8788,
      "Ġinev": 8789,
      "ĠcStringIO": 8790,
      "Ġbran": 8791,
      "Ġdat": 8792,
      "Ġnn": 8793,
      "ĠPath": 8794,
      "isdir": 8795,
      "Ġstay": 8796,
      "Ġlis": 8797,
      "verything": 8798,
      "ĠToken": 8799,
      "Ġsolid": 8800,
      "Ġvary": 8801,
      "imeter": 8802,
      "ĠAb": 8803,
      "ĠASP": 8804,
      "dia": 8805,
      "ases": 8806,
      "oose": 8807,
      "Ġappe": 8808,
      "ĠmyList": 8809,
      "\")]": 8810,
      "percent": 8811,
      "Ġunbound": 8812,
      "ĠRAM": 8813,
      "Ġelsewhere": 8814,
      "lencode": 8815,
      "rowser": 8816,
      "Ġsides": 8817,
      "Ġcheckout": 8818,
      "shop": 8819,
      "shared": 8820,
      "Ġmatrices": 8821,
      "Ġspent": 8822,
      "Ġknowing": 8823,
      "Ġending": 8824,
      "Ġmanifest": 8825,
      "Ġmods": 8826,
      "daemon": 8827,
      "Ġtrunc": 8828,
      "why": 8829,
      "Ġaccessible": 8830,
      "EText": 8831,
      "contains": 8832,
      "DELETE": 8833,
      "Ġoffer": 8834,
      "Ġposting": 8835,
      "Ġterse": 8836,
      "leftchild": 8837,
      "Ġphi": 8838,
      "Ġproduced": 8839,
      "Ġstdlib": 8840,
      "speak": 8841,
      "popinstance": 8842,
      "Ġwraps": 8843,
      "ACK": 8844,
      "bottom": 8845,
      "Ġlibxml": 8846,
      "Ġidentical": 8847,
      "Ġcapabilities": 8848,
      "Ġfinish": 8849,
      "Ġconnecting": 8850,
      "ĠOpenID": 8851,
      "Ġbuttons": 8852,
      "Ġtechnology": 8853,
      "Control": 8854,
      "IMEText": 8855,
      "Ġretain": 8856,
      "normal": 8857,
      "Area": 8858,
      "filtered": 8859,
      "ĠResource": 8860,
      "Ġreplacing": 8861,
      "Ġpotential": 8862,
      "LAY": 8863,
      "Click": 8864,
      "ĠDisplay": 8865,
      "Ġemulate": 8866,
      "Ġalign": 8867,
      "separated": 8868,
      "Iteration": 8869,
      "Ġpersist": 8870,
      "Ġmillion": 8871,
      "Ġchess": 8872,
      "Ġfocus": 8873,
      "DULE": 8874,
      "Ġarithmetic": 8875,
      "nomial": 8876,
      "Ġinevit": 8877,
      ")<": 8878,
      ")//": 8879,
      "-\"": 8880,
      "/_": 8881,
      ">{{": 8882,
      "AST": 8883,
      "CL": 8884,
      "Jane": 8885,
      "Like": 8886,
      "MN": 8887,
      "Make": 8888,
      "Pack": 8889,
      "Spe": 8890,
      "Sto": 8891,
      "Usage": 8892,
      "flo": 8893,
      "iver": 8894,
      "mn": 8895,
      "mstrong": 8896,
      "mmar": 8897,
      "paces": 8898,
      "smallest": 8899,
      "wt": 8900,
      "Ġamp": 8901,
      "heet": 8902,
      "erator": 8903,
      "stu": 8904,
      "cos": 8905,
      "Ġpull": 8906,
      "Ġoct": 8907,
      "ĠPI": 8908,
      "Ġseq": 8909,
      "Ġ(?": 8910,
      "ĠCl": 8911,
      "003": 8912,
      "Ġneg": 8913,
      "ĠSum": 8914,
      "Ġmapped": 8915,
      "ssb": 8916,
      "ssentially": 8917,
      "ables": 8918,
      "Ġdiv": 8919,
      "ĠFetch": 8920,
      "ĠFILE": 8921,
      "nop": 8922,
      "Ġmyapp": 8923,
      "Ġprogrammatically": 8924,
      "ipient": 8925,
      "ĠĠĠĠĠĠĠĠĠĠĠĠĠĠĠĠĠĠĠĠĠĠĠĠĠĠ": 8926,
      "ĠOver": 8927,
      "ĠBash": 8928,
      "ĠLabel": 8929,
      "ĠLeopard": 8930,
      "ĠUsers": 8931,
      "Ġsymlink": 8932,
      "Ġnewlines": 8933,
      "Ġcurious": 8934,
      "caps": 8935,
      "Ġserialization": 8936,
      "Ġsubsets": 8937,
      "Ġ65": 8938,
      "Ġdont": 8939,
      "rightchild": 8940,
      "Ġpossibility": 8941,
      "Ġmodifications": 8942,
      "Ġdistances": 8943,
      "printable": 8944,
      "argin": 8945,
      "ĠPyQt": 8946,
      "execfile": 8947,
      "ĠKomodo": 8948,
      "Ġextracted": 8949,
      "Ġterrible": 8950,
      "Ġdisplayed": 8951,
      "ĠOSError": 8952,
      "Ġlatitude": 8953,
      "grees": 8954,
      "Ġfolders": 8955,
      "Ġlesser": 8956,
      "ĉĉĉĉ": 8957,
      "ĠCompile": 8958,
      "Ġswitching": 8959,
      "eggs": 8960,
      ">/<": 8961,
      "responses": 8962,
      "Perl": 8963,
      "SOCK": 8964,
      "irtual": 8965,
      "Ġbounds": 8966,
      "uido": 8967,
      "Ġmonitor": 8968,
      "Ġ}}&": 8969,
      "Ġhopefully": 8970,
      "Ġabsolutely": 8971,
      "ManyToMany": 8972,
      "Ġtranslation": 8973,
      "ĠInstead": 8974,
      "highlight": 8975,
      "Ġdescriptor": 8976,
      "Programming": 8977,
      "ĠActive": 8978,
      "Record": 8979,
      "sigmoid": 8980,
      "ORMAT": 8981,
      "guess": 8982,
      "Password": 8983,
      "INTERF": 8984,
      "\"{": 8985,
      ")\\": 8986,
      ")(\\": 8987,
      "61": 8988,
      ";__": 8989,
      "ANT": 8990,
      "BUT": 8991,
      "Binary": 8992,
      "FS": 8993,
      "Filter": 8994,
      "GS": 8995,
      "Implement": 8996,
      "Match": 8997,
      "TINGS": 8998,
      "USE": 8999,
      "Welcome": 9000,
      "Xml": 9001,
      "Zope": 9002,
      "]&": 9003,
      "bz": 9004,
      "fr": 9005,
      "jrs": 9006,
      "na": 9007,
      "plugin": 9008,
      "tut": 9009,
      "vdi": 9010,
      "retrieve": 9011,
      "Ġsatisf": 9012,
      "lee": 9013,
      "Ġcherrypy": 9014,
      "seudo": 9015,
      "Ġrestart": 9016,
      "rod": 9017,
      "mpy": 9018,
      "ĠPort": 9019,
      "ĠParent": 9020,
      "isons": 9021,
      "ishes": 9022,
      "isMessage": 9023,
      "Ġcos": 9024,
      "ppose": 9025,
      "adr": 9026,
      "Ġllist": 9027,
      "emac": 9028,
      "absolute": 9029,
      "getter": 9030,
      "Ġconsu": 9031,
      "ĠSec": 9032,
      "ĠACTION": 9033,
      "Ġsuffix": 9034,
      "ĠFOR": 9035,
      "('',": 9036,
      "nostic": 9037,
      "idity": 9038,
      "Ġmyfile": 9039,
      "ĠNaive": 9040,
      "activity": 9041,
      "Ġ400": 9042,
      "ĠLI": 9043,
      "prog": 9044,
      "ĠRo": 9045,
      "reddit": 9046,
      "testing": 9047,
      "=='": 9048,
      "Init": 9049,
      "Ġstrange": 9050,
      "classification": 9051,
      "Ġ};": 9052,
      "Ġpointing": 9053,
      "Ġcounting": 9054,
      "inputs": 9055,
      "116": 9056,
      "ĠVal": 9057,
      "quired": 9058,
      "Ġbacks": 9059,
      "2005": 9060,
      "Ġ{},": 9061,
      "ĠDebug": 9062,
      "ĠFormat": 9063,
      "Thank": 9064,
      "viewlog": 9065,
      "Ġbasics": 9066,
      "ĠButton": 9067,
      "Ġhttpd": 9068,
      "Decode": 9069,
      "Ġpreferable": 9070,
      "generated": 9071,
      "website": 9072,
      "Ġpopulate": 9073,
      "ValueError": 9074,
      "Ġoccurring": 9075,
      "Ġstops": 9076,
      "Ġidentifiers": 9077,
      "ĠLock": 9078,
      "IONS": 9079,
      "documents": 9080,
      "Ġ..,": 9081,
      "OUP": 9082,
      "ĠProgramming": 9083,
      "Ġnumerical": 9084,
      "volution": 9085,
      "Ġmetric": 9086,
      "Ġcapital": 9087,
      "Ġintroduce": 9088,
      "funcs": 9089,
      "ĠCommand": 9090,
      "variables": 9091,
      "Ġearly": 9092,
      "Ġclaim": 9093,
      "Ġ991": 9094,
      "IntegerField": 9095,
      "Ġ>>>": 9096,
      "capitalize": 9097,
      "strumented": 9098,
      "Needed": 9099,
      "jrschulz": 9100,
      "isMessageNeeded": 9101,
      "/\\": 9102,
      "667": 9103,
      "==\"": 9104,
      "Apache": 9105,
      "Big": 9106,
      "Cre": 9107,
      "FY": 9108,
      "Gui": 9109,
      "Menu": 9110,
      "Machine": 9111,
      "Pa": 9112,
      "RING": 9113,
      "UV": 9114,
      "WN": 9115,
      "WARN": 9116,
      "](": 9117,
      "`,": 9118,
      "bf": 9119,
      "bro": 9120,
      "bian": 9121,
      "far": 9122,
      "gh": 9123,
      "ho": 9124,
      "jpeg": 9125,
      "kernel": 9126,
      "mount": 9127,
      "mouse": 9128,
      "nel": 9129,
      "vo": 9130,
      "Ġroman": 9131,
      "Ġtz": 9132,
      "Ġtor": 9133,
      "inate": 9134,
      "stro": 9135,
      "Ġfname": 9136,
      "Ġfresh": 9137,
      "Ġplug": 9138,
      "arant": 9139,
      "Ġbas": 9140,
      "Ġreach": 9141,
      "ĠPattern": 9142,
      "umidity": 9143,
      "Ġdemo": 9144,
      "Ġwild": 9145,
      "Ġwizard": 9146,
      "Ġprofil": 9147,
      "ĠCMS": 9148,
      "Ġmobile": 9149,
      "Ġnotifications": 9150,
      "pyDB": 9151,
      "pygame": 9152,
      "ĠDist": 9153,
      "Ġ39": 9154,
      "ĠGe": 9155,
      "ĠGlobal": 9156,
      "Ġunlike": 9157,
      "Ġundefined": 9158,
      "ĠOffice": 9159,
      "ĠLe": 9160,
      "properties": 9161,
      "ferences": 9162,
      "ĠRSS": 9163,
      "Ġobjective": 9164,
      "curl": 9165,
      "curial": 9166,
      "parsed": 9167,
      "transp": 9168,
      "layout": 9169,
      "ĠItem": 9170,
      "ressor": 9171,
      "Ġseemed": 9172,
      "dirBar": 9173,
      "component": 9174,
      "Ġpyglet": 9175,
      "Ġiterations": 9176,
      "Ġregressor": 9177,
      "2001": 9178,
      "Ġbreaking": 9179,
      "backends": 9180,
      "ializing": 9181,
      "Alternatively": 9182,
      "lets": 9183,
      "Ġcausing": 9184,
      "haw": 9185,
      "topic": 9186,
      "ĠAppend": 9187,
      "Ġcopyright": 9188,
      "returns": 9189,
      "Ġroom": 9190,
      "scp": 9191,
      "Ġshorter": 9192,
      "Ġenums": 9193,
      "+)\\": 9194,
      "commands": 9195,
      "Ġconstants": 9196,
      "Ġoptparse": 9197,
      "Ġindeed": 9198,
      "Ġnesting": 9199,
      "Ġidiomatic": 9200,
      "Ġattempts": 9201,
      "Ġrecursively": 9202,
      "pythonicÃ¢": 9203,
      "Ġblack": 9204,
      "paper": 9205,
      "hotwire": 9206,
      "Ġbraces": 9207,
      "evt": 9208,
      "Ġconcerned": 9209,
      "Ġhyper": 9210,
      "ĠMultiply": 9211,
      "similarity": 9212,
      "multi": 9213,
      "Ġretrieving": 9214,
      "Ġartist": 9215,
      "ĠIMAP": 9216,
      "Ġanswered": 9217,
      "Ġpicture": 9218,
      "Ġxlrd": 9219,
      "Mixin": 9220,
      "Formatter": 9221,
      "aurant": 9222,
      "434287": 9223,
      "basename": 9224,
      "Ġinevitably": 9225,
      "(',": 9226,
      ",)": 9227,
      "-.": 9228,
      "789": 9229,
      "800": 9230,
      "Action": 9231,
      "CR": 9232,
      "Cur": 9233,
      "Finally": 9234,
      "GW": 9235,
      "GCC": 9236,
      "LD": 9237,
      "LP": 9238,
      "MIME": 9239,
      "Pattern": 9240,
      "PHP": 9241,
      "QR": 9242,
      "RNA": 9243,
      "TD": 9244,
      "TEST": 9245,
      "Url": 9246,
      "]',": 9247,
      "gl": 9248,
      "ham": 9249,
      "vile": 9250,
      "would": 9251,
      "zier": 9252,
      "Ãı": 9253,
      "ĉčĊ": 9254,
      "Ġ).": 9255,
      "Ġamazing": 9256,
      "rem": 9257,
      "detect": 9258,
      "erf": 9259,
      "coins": 9260,
      "coordin": 9261,
      "Ġtheappname": 9262,
      "Ġfru": 9263,
      "Ġpalind": 9264,
      "enses": 9265,
      "think": 9266,
      "Ġcritical": 9267,
      "Ġmusic": 9268,
      "Ġbi": 9269,
      "Ġbring": 9270,
      "Ġnature": 9271,
      "los": 9272,
      "Ġefficiency": 9273,
      "Ġhide": 9274,
      "asp": 9275,
      "Ġiso": 9276,
      "urity": 9277,
      "cha": 9278,
      "Ġsecs": 9279,
      "--&": 9280,
      "abor": 9281,
      "Ġexplained": 9282,
      "terms": 9283,
      "ĠSoup": 9284,
      "ĠSep": 9285,
      "ĠSVC": 9286,
      "ĠAR": 9287,
      "dies": 9288,
      "ĠWARRA": 9289,
      "etic": 9290,
      "\">\"": 9291,
      "pydev": 9292,
      "ĠDon": 9293,
      "iris": 9294,
      "oney": 9295,
      "Ġ37": 9296,
      "resource": 9297,
      "Ġpoll": 9298,
      "Ġpolling": 9299,
      "ague": 9300,
      "Ġadjust": 9301,
      "Ġunw": 9302,
      "Ġunable": 9303,
      "Ġunfortunately": 9304,
      "Ġunsigned": 9305,
      "Ġ512": 9306,
      "services": 9307,
      "ĠOF": 9308,
      "ĠODBC": 9309,
      "Ġ49": 9310,
      "ĠRemove": 9311,
      "ĠRetri": 9312,
      "Ġtexts": 9313,
      "104": 9314,
      "sha": 9315,
      "shlex": 9316,
      "ĠJan": 9317,
      "Ġspeech": 9318,
      "mysite": 9319,
      "ften": 9320,
      "ifying": 9321,
      "single": 9322,
      "boot": 9323,
      "Isn": 9324,
      "Ġprocessor": 9325,
      "Ġtemperatures": 9326,
      "Ġtemplating": 9327,
      "alizing": 9328,
      "2020": 9329,
      "compat": 9330,
      "compare": 9331,
      "collection": 9332,
      "ĠExplorer": 9333,
      "super": 9334,
      "backend": 9335,
      "chomp": 9336,
      "ĠKEY": 9337,
      "Files": 9338,
      "Ġcustomized": 9339,
      "Ġreasonably": 9340,
      "Ġclunky": 9341,
      "Ġwheel": 9342,
      "Seq": 9343,
      "ĠApplication": 9344,
      "messages": 9345,
      "catter": 9346,
      "Ġoriginally": 9347,
      "Ġexpects": 9348,
      "Ġregexes": 9349,
      "222": 9350,
      "Ġmidnight": 9351,
      "period": 9352,
      "Ġhosting": 9353,
      "Character": 9354,
      "factors": 9355,
      "Ġheadlines": 9356,
      "handling": 9357,
[...]
